{
  "version": "1.0",
  "truncation": null,
  "padding": null,
  "added_tokens": [
    {
      "id": 0,
      "content": "<unk>",
      "single_word": false,
      "lstrip": false,
      "rstrip": false,
      "normalized": false,
      "special": true
    },
    {
      "id": 1,
      "content": "<pad>",
      "single_word": false,
      "lstrip": false,
      "rstrip": false,
      "normalized": false,
      "special": true
    },
    {
      "id": 2,
      "content": "<bos>",
      "single_word": false,
      "lstrip": false,
      "rstrip": false,
      "normalized": false,
      "special": true
    },
    {
      "id": 3,
      "content": "<eos>",
      "single_word": false,
      "lstrip": false,
      "rstrip": false,
      "normalized": false,
      "special": true
    }
  ],
  "normalizer": null,
  "pre_tokenizer": {
    "type": "ByteLevel",
    "add_prefix_space": true,
    "trim_offsets": true,
    "use_regex": true
  },
  "post_processor": null,
  "decoder": {
    "type": "ByteLevel",
    "add_prefix_space": true,
    "trim_offsets": true,
    "use_regex": true
  },
  "model": {
    "type": "BPE",
    "dropout": null,
    "unk_token": "<unk>",
    "continuing_subword_prefix": null,
    "end_of_word_suffix": null,
    "fuse_unk": false,
    "byte_fallback": false,
    "ignore_merges": false,
    "vocab": {
      "<unk>": 0,
      "<pad>": 1,
      "<bos>": 2,
      "<eos>": 3,
      "!": 4,
      "\"": 5,
      "#": 6,
      "$": 7,
      "%": 8,
      "&": 9,
      "'": 10,
      "(": 11,
      ")": 12,
      "*": 13,
      "+": 14,
      ",": 15,
      "-": 16,
      ".": 17,
      "/": 18,
      "0": 19,
      "1": 20,
      "2": 21,
      "3": 22,
      "4": 23,
      "5": 24,
      "6": 25,
      "7": 26,
      "8": 27,
      "9": 28,
      ":": 29,
      ";": 30,
      "<": 31,
      "=": 32,
      ">": 33,
      "?": 34,
      "@": 35,
      "A": 36,
      "B": 37,
      "C": 38,
      "D": 39,
      "E": 40,
      "F": 41,
      "G": 42,
      "H": 43,
      "I": 44,
      "J": 45,
      "K": 46,
      "L": 47,
      "M": 48,
      "N": 49,
      "O": 50,
      "P": 51,
      "Q": 52,
      "R": 53,
      "S": 54,
      "T": 55,
      "U": 56,
      "V": 57,
      "W": 58,
      "X": 59,
      "Y": 60,
      "Z": 61,
      "[": 62,
      "\\": 63,
      "]": 64,
      "^": 65,
      "_": 66,
      "`": 67,
      "a": 68,
      "b": 69,
      "c": 70,
      "d": 71,
      "e": 72,
      "f": 73,
      "g": 74,
      "h": 75,
      "i": 76,
      "j": 77,
      "k": 78,
      "l": 79,
      "m": 80,
      "n": 81,
      "o": 82,
      "p": 83,
      "q": 84,
      "r": 85,
      "s": 86,
      "t": 87,
      "u": 88,
      "v": 89,
      "w": 90,
      "x": 91,
      "y": 92,
      "z": 93,
      "{": 94,
      "|": 95,
      "}": 96,
      "~": 97,
      "¡": 98,
      "¢": 99,
      "£": 100,
      "¤": 101,
      "¥": 102,
      "¦": 103,
      "§": 104,
      "¨": 105,
      "©": 106,
      "ª": 107,
      "«": 108,
      "¬": 109,
      "®": 110,
      "¯": 111,
      "°": 112,
      "±": 113,
      "²": 114,
      "³": 115,
      "´": 116,
      "µ": 117,
      "¶": 118,
      "·": 119,
      "¸": 120,
      "¹": 121,
      "º": 122,
      "»": 123,
      "¼": 124,
      "½": 125,
      "¾": 126,
      "¿": 127,
      "Â": 128,
      "Ã": 129,
      "Ä": 130,
      "Å": 131,
      "Æ": 132,
      "Ç": 133,
      "È": 134,
      "É": 135,
      "Ê": 136,
      "Ë": 137,
      "Ì": 138,
      "Í": 139,
      "Î": 140,
      "Ï": 141,
      "Ð": 142,
      "Ñ": 143,
      "Ò": 144,
      "Ó": 145,
      "Ô": 146,
      "Õ": 147,
      "Ö": 148,
      "×": 149,
      "Ø": 150,
      "Ù": 151,
      "Ú": 152,
      "Û": 153,
      "Ü": 154,
      "ß": 155,
      "à": 156,
      "á": 157,
      "â": 158,
      "ã": 159,
      "ä": 160,
      "å": 161,
      "æ": 162,
      "ç": 163,
      "è": 164,
      "é": 165,
      "ê": 166,
      "ë": 167,
      "ì": 168,
      "í": 169,
      "î": 170,
      "ï": 171,
      "ð": 172,
      "Ā": 173,
      "Ă": 174,
      "ă": 175,
      "ą": 176,
      "Ć": 177,
      "ć": 178,
      "Ĉ": 179,
      "ĉ": 180,
      "Ċ": 181,
      "Đ": 182,
      "Ē": 183,
      "ē": 184,
      "ė": 185,
      "Ę": 186,
      "ę": 187,
      "Ě": 188,
      "ě": 189,
      "Ġ": 190,
      "Ģ": 191,
      "ģ": 192,
      "Ĥ": 193,
      "ĥ": 194,
      "Ħ": 195,
      "ħ": 196,
      "Ĩ": 197,
      "ĩ": 198,
      "Ī": 199,
      "ī": 200,
      "Ĭ": 201,
      "ĭ": 202,
      "Į": 203,
      "į": 204,
      "İ": 205,
      "ı": 206,
      "Ĳ": 207,
      "ĳ": 208,
      "Ĵ": 209,
      "ĵ": 210,
      "Ķ": 211,
      "ķ": 212,
      "ĸ": 213,
      "Ĺ": 214,
      "ĺ": 215,
      "Ļ": 216,
      "ļ": 217,
      "Ľ": 218,
      "ľ": 219,
      "Ŀ": 220,
      "ŀ": 221,
      "Ł": 222,
      "ł": 223,
      "Ń": 224,
      "Ġt": 225,
      "he": 226,
      "Ġa": 227,
      "in": 228,
      "Ġs": 229,
      "Ġthe": 230,
      "re": 231,
      "Ġw": 232,
      "nd": 233,
      "Ġo": 234,
      "er": 235,
      "Ġc": 236,
      "ed": 237,
      "it": 238,
      "at": 239,
      "Ġb": 240,
      "on": 241,
      "Ġf": 242,
      "ou": 243,
      "Ġand": 244,
      "Ġto": 245,
      "is": 246,
      "Ġp": 247,
      "or": 248,
      "en": 249,
      "ing": 250,
      "es": 251,
      "an": 252,
      "Ġm": 253,
      "Ġh": 254,
      "ar": 255,
      "Ġd": 256,
      "al": 257,
      "as": 258,
      "Ġin": 259,
      "Ġl": 260,
      "om": 261,
      "Ġof": 262,
      "il": 263,
      "ic": 264,
      "Ġth": 265,
      "ĠT": 266,
      "le": 267,
      "ion": 268,
      "Ġn": 269,
      "Ġg": 270,
      "ay": 271,
      "Ġe": 272,
      "id": 273,
      "ĠS": 274,
      "ve": 275,
      "ent": 276,
      "Ġy": 277,
      "et": 278,
      "ro": 279,
      "Ġhe": 280,
      "Ġre": 281,
      "st": 282,
      "ut": 283,
      "ĠI": 284,
      "im": 285,
      "ac": 286,
      "ad": 287,
      "ly": 288,
      "Ġwas": 289,
      "ot": 290,
      "Ġbe": 291,
      "Ġyou": 292,
      "Ġon": 293,
      "ow": 294,
      "Ġfor": 295,
      "ver": 296,
      "Ġu": 297,
      "ig": 298,
      "am": 299,
      "Ġis": 300,
      "Ġit": 301,
      "ĠThe": 302,
      "el": 303,
      "ir": 304,
      "ith": 305,
      "ur": 306,
      "Ġst": 307,
      "ĠA": 308,
      "ol": 309,
      "Ġwith": 310,
      "Ġthat": 311,
      "ec": 312,
      "âĢ": 313,
      "ĠH": 314,
      "ĠC": 315,
      "se": 316,
      "ĠM": 317,
      "Ġha": 318,
      "Ġ,": 319,
      "ĠB": 320,
      "ce": 321,
      "ation": 322,
      "ke": 323,
      "Ġal": 324,
      "Ġas": 325,
      "pp": 326,
      "oo": 327,
      "Ġan": 328,
      "Ġwh": 329,
      "ter": 330,
      "ul": 331,
      "Ġwe": 332,
      "ri": 333,
      "ld": 334,
      "ch": 335,
      "ĠL": 336,
      "ill": 337,
      "Ġsa": 338,
      "her": 339,
      "Ġare": 340,
      "Ġ.": 341,
      "Ġr": 342,
      "Ġ\"": 343,
      "if": 344,
      "ant": 345,
      "ĠP": 346,
      "ag": 347,
      "ĠW": 348,
      "un": 349,
      "Ġpro": 350,
      "Ġat": 351,
      "ct": 352,
      "ore": 353,
      "ers": 354,
      "ain": 355,
      "Ġher": 356,
      "Ġpl": 357,
      "ĠO": 358,
      "Ġ1": 359,
      "Ġcom": 360,
      "Ġne": 361,
      "rom": 362,
      "ht": 363,
      "em": 364,
      "âĢĻ": 365,
      "Ġor": 366,
      "ab": 367,
      "Ġsh": 368,
      "ess": 369,
      "est": 370,
      "Ġex": 371,
      "Ġcon": 372,
      "ĠD": 373,
      "ĠHe": 374,
      "um": 375,
      "us": 376,
      "Ġnot": 377,
      "ate": 378,
      "Ġso": 379,
      "ĠF": 380,
      "Ġhis": 381,
      "ure": 382,
      "ould": 383,
      "th": 384,
      "op": 385,
      "ĠShe": 386,
      "art": 387,
      "and": 388,
      "Ġhave": 389,
      "qu": 390,
      "very": 391,
      "Ġse": 392,
      "all": 393,
      "ome": 394,
      "ĠR": 395,
      "ist": 396,
      "Ġyour": 397,
      "Ġv": 398,
      "rou": 399,
      "Ġup": 400,
      "Ġfrom": 401,
      "Ġ2": 402,
      "ard": 403,
      "ily": 404,
      "Ġcan": 405,
      "nt": 406,
      "ive": 407,
      "Ġk": 408,
      "are": 409,
      "ide": 410,
      "ĠE": 411,
      "Ġthey": 412,
      "ked": 413,
      "Ġby": 414,
      "ĠThey": 415,
      "Ġdo": 416,
      "ight": 417,
      "ĠG": 418,
      "Ġ(": 419,
      "ust": 420,
      "ort": 421,
      "Ġch": 422,
      "Ġsp": 423,
      "os": 424,
      "ack": 425,
      "ity": 426,
      "ect": 427,
      "Ġshe": 428,
      "Ġsaid": 429,
      "end": 430,
      "ĠN": 431,
      "ies": 432,
      "Ġbut": 433,
      "The": 434,
      "Ġli": 435,
      "ap": 436,
      "ĠJ": 437,
      "ime": 438,
      "Ġsu": 439,
      "Ġhad": 440,
      "'s": 441,
      "Ġtr": 442,
      "ment": 443,
      "ear": 444,
      "ĠĊ": 445,
      "Ġthis": 446,
      "Ġall": 447,
      "Ġday": 448,
      "ake": 449,
      "Ġj": 450,
      "ud": 451,
      "Ġwor": 452,
      "out": 453,
      "ell": 454,
      "oc": 455,
      "our": 456,
      "Ġwill": 457,
      "ally": 458,
      "ne": 459,
      "od": 460,
      "Ġtime": 461,
      "res": 462,
      "Ġde": 463,
      "Ġout": 464,
      "Ġab": 465,
      "Ġtheir": 466,
      "hen": 467,
      "ast": 468,
      "Ġplay": 469,
      "ind": 470,
      "ook": 471,
      "ost": 472,
      "ĠIt": 473,
      "ak": 474,
      "ice": 475,
      "red": 476,
      "itt": 477,
      "ge": 478,
      "ther": 479,
      "Ġwere": 480,
      "ong": 481,
      "ry": 482,
      "Ġcl": 483,
      "Ġthere": 484,
      "one": 485,
      "ame": 486,
      "ine": 487,
      "ie": 488,
      "00": 489,
      "ial": 490,
      "ood": 491,
      "iv": 492,
      "Ġgo": 493,
      "Ġwant": 494,
      "Ġus": 495,
      "Ġme": 496,
      "gh": 497,
      "ĠâĢ": 498,
      "pl": 499,
      "Ġad": 500,
      "Ġle": 501,
      "Ġint": 502,
      "Ġvery": 503,
      "per": 504,
      "Ġ=": 505,
      "Ġman": 506,
      "Ġthem": 507,
      "pt": 508,
      "ich": 509,
      "act": 510,
      "ved": 511,
      "ous": 512,
      "Ġen": 513,
      "ĠLily": 514,
      "Ġhas": 515,
      "ff": 516,
      "ip": 517,
      "Ġcomp": 518,
      "Ġmom": 519,
      "ated": 520,
      "age": 521,
      "able": 522,
      "Ġhapp": 523,
      "Ġone": 524,
      "ions": 525,
      "my": 526,
      "Ġsm": 527,
      "Ġmore": 528,
      "ra": 529,
      "ite": 530,
      "ark": 531,
      "Ġlo": 532,
      "Ġfe": 533,
      "ĠIn": 534,
      "ĠY": 535,
      "au": 536,
      "ach": 537,
      "iz": 538,
      "ĠTh": 539,
      "ĠU": 540,
      "Ġwho": 541,
      "way": 542,
      "ace": 543,
      "cc": 544,
      "Ġother": 545,
      "ittle": 546,
      "hed": 547,
      "ree": 548,
      "Ġim": 549,
      "Ġro": 550,
      "so": 551,
      "ber": 552,
      "Ġsc": 553,
      "Ġcont": 554,
      "Ġmy": 555,
      "Ġsome": 556,
      "oy": 557,
      "ue": 558,
      "ia": 559,
      "ep": 560,
      "ond": 561,
      "Ġlike": 562,
      "Ġlittle": 563,
      "'t": 564,
      "uc": 565,
      "ick": 566,
      "og": 567,
      "ings": 568,
      "Ġabout": 569,
      "Ġhel": 570,
      "orm": 571,
      "Ġag": 572,
      "Ġ@": 573,
      "ound": 574,
      "riend": 575,
      "own": 576,
      "Ġwould": 577,
      "ile": 578,
      "Ġbig": 579,
      "ance": 580,
      "reat": 581,
      "Ġoff": 582,
      "Ġnew": 583,
      "Ġwhich": 584,
      "Ġour": 585,
      "ans": 586,
      "nce": 587,
      "round": 588,
      "ign": 589,
      "ire": 590,
      "Ġhim": 591,
      "Ġfriend": 592,
      "ass": 593,
      "Ġtoo": 594,
      "Ġhelp": 595,
      "Ġqu": 596,
      "Ġinc": 597,
      "Ġapp": 598,
      "ail": 599,
      "ĠK": 600,
      "Ġcould": 601,
      "ks": 602,
      "ary": 603,
      "Ġalso": 604,
      "ll": 605,
      "ade": 606,
      "Ġres": 607,
      "ere": 608,
      "Ġwhen": 609,
      "Ġany": 610,
      "ase": 611,
      "Ġget": 612,
      "low": 613,
      "Ġ'": 614,
      "ful": 615,
      "Ġhappy": 616,
      "av": 617,
      "ĠSt": 618,
      "ish": 619,
      "Ġwhat": 620,
      "Ġper": 621,
      ".\"": 622,
      "uct": 623,
      "Ġev": 624,
      "ater": 625,
      "Ġdid": 626,
      "Ġkn": 627,
      "Ġback": 628,
      "Ġover": 629,
      "ub": 630,
      "ical": 631,
      "Ġar": 632,
      "Ġsaw": 633,
      "Ġbec": 634,
      "ations": 635,
      "Ġ20": 636,
      "Ġno": 637,
      "Ġun": 638,
      "ib": 639,
      "Ġthan": 640,
      "ult": 641,
      "Ġyear": 642,
      "Ġpre": 643,
      "Ġmake": 644,
      "Ġdis": 645,
      "Ġ19": 646,
      "ents": 647,
      "fter": 648,
      "wn": 649,
      "vel": 650,
      "Ġser": 651,
      "ount": 652,
      "ord": 653,
      "Ġpart": 654,
      "ress": 655,
      "ild": 656,
      "ug": 657,
      "Ġpe": 658,
      "Ġ3": 659,
      "Ġits": 660,
      "ence": 661,
      "Ġwork": 662,
      "Ġbeen": 663,
      "form": 664,
      "Ġneed": 665,
      "ĠCh": 666,
      "Ġif": 667,
      "ors": 668,
      "Ġsee": 669,
      "ĠV": 670,
      "Ġpr": 671,
      "Ġinto": 672,
      "Ġtw": 673,
      "hing": 674,
      "ĠOnce": 675,
      "-@": 676,
      "Ġ@-@": 677,
      "Ġcol": 678,
      "ition": 679,
      "Ġhow": 680,
      "irl": 681,
      "Ġrec": 682,
      "Ġimp": 683,
      "ang": 684,
      "Ġdec": 685,
      "Ġam": 686,
      "ĠTim": 687,
      "ĠWe": 688,
      "irst": 689,
      "Ġstart": 690,
      "get": 691,
      "Ġsay": 692,
      "Ġte": 693,
      "ĠYou": 694,
      "Ġco": 695,
      "here": 696,
      "!\"": 697,
      "Ġlook": 698,
      "ens": 699,
      "int": 700,
      "side": 701,
      "Ġwanted": 702,
      "Ġupon": 703,
      "Ġbl": 704,
      "Ġfun": 705,
      "Ġgr": 706,
      "ob": 707,
      "ited": 708,
      "ose": 709,
      "omet": 710,
      "Ġjust": 711,
      "Ġevery": 712,
      "Ġcar": 713,
      "igh": 714,
      "nder": 715,
      "Ġgirl": 716,
      "Ġ201": 717,
      "Ġdes": 718,
      "mer": 719,
      "Ġthen": 720,
      "ory": 721,
      "ious": 722,
      "Ġmade": 723,
      "Ġaround": 724,
      "Ġbr": 725,
      "ning": 726,
      "Ġgood": 727,
      "ise": 728,
      "ft": 729,
      "Ġknow": 730,
      "ght": 731,
      "lect": 732,
      "Ġhome": 733,
      "Ġbet": 734,
      "Ġfirst": 735,
      "ink": 736,
      "ving": 737,
      "old": 738,
      "Ġacc": 739,
      "Ġwent": 740,
      "ople": 741,
      "als": 742,
      "Ġagain": 743,
      "ause": 744,
      "ian": 745,
      "ĠThis": 746,
      "Ġbu": 747,
      "Ġspec": 748,
      "lud": 749,
      "we": 750,
      "rough": 751,
      "âĢĿ": 752,
      "Ġfriends": 753,
      "Ġfl": 754,
      "ĠOne": 755,
      "ict": 756,
      "vers": 757,
      "Ġke": 758,
      "Ġsomet": 759,
      "te": 760,
      "amed": 761,
      "iff": 762,
      "les": 763,
      "Ġtwo": 764,
      "Ġstr": 765,
      "anc": 766,
      "Ġdown": 767,
      "Ġunder": 768,
      "Ġfind": 769,
      "uch": 770,
      "Ġpeople": 771,
      "ough": 772,
      "oth": 773,
      "Ġuse": 774,
      "ys": 775,
      "Ġonly": 776,
      "ons": 777,
      "ave": 778,
      "Ġact": 779,
      "ĠBen": 780,
      "ird": 781,
      "Ġmany": 782,
      "urn": 783,
      "Ġthrough": 784,
      "ove": 785,
      "ax": 786,
      "Ġfound": 787,
      "Ġway": 788,
      "ĠBut": 789,
      "ared": 790,
      "Ġcomm": 791,
      "ĠâĢĵ": 792,
      "Ġmost": 793,
      "elt": 794,
      "Th": 795,
      "hn": 796,
      "Ġprov": 797,
      "Ġinclud": 798,
      "Ġafter": 799,
      "iss": 800,
      "Ġpo": 801,
      "Ġexc": 802,
      "Ġ4": 803,
      "Ġ)": 804,
      "Ġadd": 805,
      "Ġshow": 806,
      "fore": 807,
      "tern": 808,
      "Ġrem": 809,
      "Ġran": 810,
      "Ġind": 811,
      "ates": 812,
      "ĠâĢľ": 813,
      "Ġbo": 814,
      "Ġmuch": 815,
      "Ġmay": 816,
      "xt": 817,
      "Ġprod": 818,
      "Ġ5": 819,
      "Ġdiff": 820,
      "ĠAn": 821,
      "ĠTom": 822,
      "amp": 823,
      "ouse": 824,
      "Ġtake": 825,
      "ied": 826,
      "Ġcare": 827,
      "?\"": 828,
      "elf": 829,
      "Ġnamed": 830,
      "Ġwell": 831,
      "Ġrep": 832,
      "ating": 833,
      "rit": 834,
      "row": 835,
      "iled": 836,
      "Ġatt": 837,
      "ty": 838,
      "Ġsomething": 839,
      "Ġfin": 840,
      "Ġput": 841,
      "Ġbest": 842,
      "Ġrel": 843,
      "Ġeven": 844,
      "Ġaway": 845,
      "Ġlong": 846,
      "Ġfelt": 847,
      "Ġloved": 848,
      "Ġbecause": 849,
      "hes": 850,
      "ward": 851,
      "Ġloo": 852,
      "ures": 853,
      "Ġasked": 854,
      "ject": 855,
      "Ġ-": 856,
      "Ġwhere": 857,
      "gr": 858,
      "Ġph": 859,
      "Ġtoget": 860,
      "Ġtogether": 861,
      "ways": 862,
      "Ġem": 863,
      "ual": 864,
      "ices": 865,
      "Ġfeel": 866,
      "ided": 867,
      "aking": 868,
      "Ġsupp": 869,
      "Ġend": 870,
      "ased": 871,
      "Ġshould": 872,
      "Ġop": 873,
      "Ġthings": 874,
      "Ġhand": 875,
      "Ġgreat": 876,
      "Ġcall": 877,
      "Ġsur": 878,
      "alk": 879,
      "Ġown": 880,
      "uring": 881,
      "Ġstarted": 882,
      "Ġac": 883,
      "ull": 884,
      "Ġreg": 885,
      "Ġeach": 886,
      "Ġyears": 887,
      "ath": 888,
      "ank": 889,
      "Ġthese": 890,
      "ting": 891,
      "Ġhigh": 892,
      "ities": 893,
      "enc": 894,
      "Ġboy": 895,
      "air": 896,
      "ife": 897,
      "gan": 898,
      "Ġserv": 899,
      "Ġlooked": 900,
      "lic": 901,
      "ĠAs": 902,
      "Ġfam": 903,
      "iew": 904,
      "ific": 905,
      "ĠTimmy": 906,
      "pped": 907,
      "ool": 908,
      ").": 909,
      "ought": 910,
      "Ġnow": 911,
      "day": 912,
      "ren": 913,
      "other": 914,
      "Ġtri": 915,
      "Ġsy": 916,
      "Ġdon": 917,
      "Ġlear": 918,
      "Ġsk": 919,
      "Ġexp": 920,
      "Ġbus": 921,
      "Ġlot": 922,
      "ix": 923,
      "ew": 924,
      "ert": 925,
      "Ġinv": 926,
      "Ġsec": 927,
      ",\"": 928,
      "ered": 929,
      "Ġcons": 930,
      "erm": 931,
      "any": 932,
      "Ġloc": 933,
      "atch": 934,
      "Ġset": 935,
      "Ġsmiled": 936,
      "Ġalways": 937,
      "ĠWh": 938,
      "Ġsays": 939,
      "Ġgot": 940,
      "Ġbefore": 941,
      "Ġread": 942,
      "ble": 943,
      "Ġright": 944,
      "Ġrun": 945,
      "oss": 946,
      "aw": 947,
      "Ġche": 948,
      "Ġexper": 949,
      "Ġstud": 950,
      "Ġsuch": 951,
      "ĠUn": 952,
      "ible": 953,
      "Ġused": 954,
      "bs": 955,
      "ular": 956,
      "Ġbird": 957,
      "ont": 958,
      "Ġdiffere": 959,
      "Ġ200": 960,
      "Ġent": 961,
      "arm": 962,
      "ves": 963,
      "ĠAnd": 964,
      "ational": 965,
      "az": 966,
      "Ġpers": 967,
      "Ġbeing": 968,
      "pr": 969,
      "Ġass": 970,
      "iness": 971,
      "uck": 972,
      "ments": 973,
      "Ġwhile": 974,
      "str": 975,
      "Ġpark": 976,
      "up": 977,
      "rop": 978,
      "olog": 979,
      "led": 980,
      "Ġold": 981,
      "..": 982,
      "Ġmon": 983,
      "ollow": 984,
      "Ġopen": 985,
      "Ġboth": 986,
      "ock": 987,
      "Ġgu": 988,
      "Ġcle": 989,
      "its": 990,
      "Ġwater": 991,
      "hip": 992,
      "Ġspecial": 993,
      "Ġsmall": 994,
      "velop": 995,
      "Ġadv": 996,
      "Ġfr": 997,
      "Ġcre": 998,
      "ics": 999,
      "ven": 1000,
      "ident": 1001,
      "Ġlove": 1002,
      "ener": 1003,
      "Ġproduct": 1004,
      "Ġcame": 1005,
      "na": 1006,
      "arch": 1007,
      "land": 1008,
      "Ġlist": 1009,
      "ility": 1010,
      "Ġbook": 1011,
      "ative": 1012,
      "Ġ6": 1013,
      "ement": 1014,
      "Ġdesign": 1015,
      "ner": 1016,
      "Ġbro": 1017,
      "ient": 1018,
      "ts": 1019,
      "Ġcur": 1020,
      "âĤ": 1021,
      "ny": 1022,
      "ience": 1023,
      "Ġstill": 1024,
      "stem": 1025,
      "Ġnum": 1026,
      "ros": 1027,
      "Ġeff": 1028,
      "ower": 1029,
      "âĤ¬": 1030,
      "Ġdoes": 1031,
      "Ġtook": 1032,
      "Ġthought": 1033,
      "Ġmin": 1034,
      "ck": 1035,
      "ished": 1036,
      "Ã¢": 1037,
      "Ġplaying": 1038,
      "Ġexpl": 1039,
      "Ġdisc": 1040,
      "ange": 1041,
      "Ġsad": 1042,
      "Ġinform": 1043,
      "ĠRe": 1044,
      "ĠCom": 1045,
      "ĠAl": 1046,
      "ng": 1047,
      "Ġworld": 1048,
      "rib": 1049,
      "ually": 1050,
      "ump": 1051,
      "Ġlearn": 1052,
      "akes": 1053,
      "Ġcr": 1054,
      "ember": 1055,
      "ov": 1056,
      "ized": 1057,
      "Ġfollow": 1058,
      "Ġrequ": 1059,
      "ged": 1060,
      "Ġvis": 1061,
      "Ġgl": 1062,
      "chool": 1063,
      "Ġdifferent": 1064,
      "Ġreal": 1065,
      "alth": 1066,
      "Ġnever": 1067,
      "Ġear": 1068,
      "ĠSp": 1069,
      "Ġpres": 1070,
      "Ġsw": 1071,
      "Ġunt": 1072,
      "ork": 1073,
      "Ġmod": 1074,
      "Ġdidn": 1075,
      "ĠIf": 1076,
      "Ġhere": 1077,
      "ather": 1078,
      "Ġav": 1079,
      "ets": 1080,
      "Ġperson": 1081,
      "aut": 1082,
      "Ġhouse": 1083,
      "Ġred": 1084,
      "Ġbetter": 1085,
      "Ġroom": 1086,
      "Ġdecided": 1087,
      "io": 1088,
      "ara": 1089,
      "Ġchild": 1090,
      "lease": 1091,
      "Ġmet": 1092,
      "Ġfamily": 1093,
      "One": 1094,
      "ĠAr": 1095,
      "Ġtry": 1096,
      "self": 1097,
      "Ġthree": 1098,
      "cess": 1099,
      "ired": 1100,
      "Ġplace": 1101,
      "Ġsl": 1102,
      "Ġimport": 1103,
      "Ġthink": 1104,
      "Ġdr": 1105,
      "ason": 1106,
      "Ġdevelop": 1107,
      "ters": 1108,
      "Ġret": 1109,
      "Ġdel": 1110,
      "ph": 1111,
      "Ġdog": 1112,
      "irect": 1113,
      "ee": 1114,
      "Ġpol": 1115,
      "Ġuntil": 1116,
      "ins": 1117,
      "Ġsim": 1118,
      "der": 1119,
      "ional": 1120,
      "ĠJo": 1121,
      "Ġgoing": 1122,
      "Ġins": 1123,
      "Ġide": 1124,
      "ince": 1125,
      "und": 1126,
      "Ġmark": 1127,
      "ier": 1128,
      "Ġcome": 1129,
      "Wh": 1130,
      "Ġcomple": 1131,
      "Ġlife": 1132,
      "Ġtrans": 1133,
      "ric": 1134,
      "ash": 1135,
      "Ġ7": 1136,
      "Ġbusiness": 1137,
      "Ġsub": 1138,
      "ever": 1139,
      "ars": 1140,
      "imes": 1141,
      "Ġlet": 1142,
      "Lily": 1143,
      "iet": 1144,
      "Ġinst": 1145,
      "Ġform": 1146,
      "ale": 1147,
      "iel": 1148,
      "Ġmed": 1149,
      "ween": 1150,
      "Ġoutside": 1151,
      "Ġ8": 1152,
      "ĠSo": 1153,
      "yp": 1154,
      "read": 1155,
      "br": 1156,
      "com": 1157,
      "Ġext": 1158,
      "Ġresp": 1159,
      "Ġkeep": 1160,
      "den": 1161,
      "line": 1162,
      "Ġref": 1163,
      "Ġwee": 1164,
      "Ġsystem": 1165,
      "Ġdet": 1166,
      "Ġexcited": 1167,
      "Ġinformation": 1168,
      "ines": 1169,
      "Ġthose": 1170,
      "ane": 1171,
      "Ġhug": 1172,
      "Ġball": 1173,
      "Ġart": 1174,
      "Ġwa": 1175,
      "Ġlar": 1176,
      "ised": 1177,
      "Ġsign": 1178,
      "Ġ&": 1179,
      "Ġeas": 1180,
      "Ġtop": 1181,
      "Ġcour": 1182,
      "Ġinter": 1183,
      "Ġcount": 1184,
      "Ġliked": 1185,
      "Ġbetween": 1186,
      "Ġreally": 1187,
      "echn": 1188,
      "cept": 1189,
      "gram": 1190,
      "),": 1191,
      "ages": 1192,
      "Ġhard": 1193,
      "ues": 1194,
      "We": 1195,
      "Ġgame": 1196,
      "Ġwr": 1197,
      "Ġbel": 1198,
      "Ġkne": 1199,
      "Ġsupport": 1200,
      "Ġ$": 1201,
      "fe": 1202,
      "Ġchar": 1203,
      "Ġnext": 1204,
      "ĠPro": 1205,
      "Ġbuild": 1206,
      "Ġteam": 1207,
      "Ġ10": 1208,
      "Ġsame": 1209,
      "Ġlead": 1210,
      "thing": 1211,
      "ple": 1212,
      "ĠSh": 1213,
      "ĠNew": 1214,
      "Ġpur": 1215,
      "Ġ18": 1216,
      "ustom": 1217,
      "ross": 1218,
      "ute": 1219,
      "Ġpub": 1220,
      "Ġlast": 1221,
      "ize": 1222,
      "Ġcent": 1223,
      "ness": 1224,
      "It": 1225,
      "Ġed": 1226,
      "ames": 1227,
      "be": 1228,
      "ature": 1229,
      "roup": 1230,
      "ched": 1231,
      "Ġimportant": 1232,
      "Ġ9": 1233,
      "Ġaut": 1234,
      "man": 1235,
      "Ġduring": 1236,
      "ivers": 1237,
      "Ġpoint": 1238,
      "ĠFor": 1239,
      "ĠSam": 1240,
      "Ġfree": 1241,
      "ton": 1242,
      "Ġmus": 1243,
      "Ġkind": 1244,
      "Ġconf": 1245,
      "aint": 1246,
      "Ġgener": 1247,
      "They": 1248,
      "Ġtree": 1249,
      "ata": 1250,
      "ield": 1251,
      "ĠThere": 1252,
      "Ġhead": 1253,
      "Ġcontin": 1254,
      "Ġfew": 1255,
      "Ġgive": 1256,
      "In": 1257,
      "ef": 1258,
      "Ġpost": 1259,
      "Ġsure": 1260,
      "Ġbeaut": 1261,
      "lo": 1262,
      "ĠMom": 1263,
      "Ġdad": 1264,
      "Ġtold": 1265,
      "Ġplan": 1266,
      "Ġgiv": 1267,
      "Ġscared": 1268,
      "rap": 1269,
      "ĠWhen": 1270,
      "orn": 1271,
      "Ġnumber": 1272,
      "by": 1273,
      "Ġdri": 1274,
      "ĠCl": 1275,
      "Ġsun": 1276,
      "oun": 1277,
      "000": 1278,
      "Ġinside": 1279,
      "Ġcalled": 1280,
      "Ġcommun": 1281,
      "Ġsol": 1282,
      "Ġfil": 1283,
      "ants": 1284,
      "view": 1285,
      "Ġprocess": 1286,
      "Ġmo": 1287,
      "Ġdef": 1288,
      "erest": 1289,
      "ution": 1290,
      "reen": 1291,
      "Ġwalk": 1292,
      "Ġdep": 1293,
      "joy": 1294,
      "Ġprof": 1295,
      "Ġvar": 1296,
      "Ġknew": 1297,
      "els": 1298,
      "Ġval": 1299,
      "Ġdirect": 1300,
      "ality": 1301,
      "Ġavail": 1302,
      "Ġprogram": 1303,
      "aining": 1304,
      "ger": 1305,
      "Ġturn": 1306,
      "Ġpass": 1307,
      "ined": 1308,
      "But": 1309,
      "Ġanother": 1310,
      "'m": 1311,
      "Ġcustom": 1312,
      "ms": 1313,
      "You": 1314,
      "oll": 1315,
      "ract": 1316,
      "att": 1317,
      "Ġgave": 1318,
      "Ġlight": 1319,
      "Ġsing": 1320,
      "Ġnear": 1321,
      "Ġusing": 1322,
      "This": 1323,
      "Ġtoys": 1324,
      "Ġpret": 1325,
      "Ġdist": 1326,
      "meric": 1327,
      "Ġlau": 1328,
      "Ġplayed": 1329,
      "Ġproject": 1330,
      "Ġcap": 1331,
      "ĠLe": 1332,
      "Ġshare": 1333,
      "oot": 1334,
      "Ġschool": 1335,
      "ained": 1336,
      "less": 1337,
      "stand": 1338,
      "Ġbox": 1339,
      "iful": 1340,
      "Ġmommy": 1341,
      "Ġtechn": 1342,
      "Ġrest": 1343,
      "ides": 1344,
      "Ġincluding": 1345,
      "Ġfood": 1346,
      "ike": 1347,
      "Ġcompany": 1348,
      "Ġwithout": 1349,
      "Ġfull": 1350,
      "Ġprom": 1351,
      "Ġfore": 1352,
      "Ġlooking": 1353,
      "ern": 1354,
      "Ġinf": 1355,
      "ĠHow": 1356,
      "Ġpat": 1357,
      "ott": 1358,
      "Ġperform": 1359,
      "Ġhealth": 1360,
      "Ġallow": 1361,
      "Ġless": 1362,
      "ces": 1363,
      "Ġorgan": 1364,
      "ling": 1365,
      "Ġanim": 1366,
      "ĠMax": 1367,
      "Ġable": 1368,
      "Ġrece": 1369,
      "ody": 1370,
      "bers": 1371,
      "Ġresult": 1372,
      "ially": 1373,
      "ider": 1374,
      "erv": 1375,
      "ology": 1376,
      "Ġstand": 1377,
      "ĠAmeric": 1378,
      "outh": 1379,
      "oney": 1380,
      "Ġstay": 1381,
      "Ġavailable": 1382,
      "Ġposs": 1383,
      "Ġflow": 1384,
      "Ġtried": 1385,
      "ection": 1386,
      "Ġnice": 1387,
      "Ġpartic": 1388,
      "Ġcor": 1389,
      "orry": 1390,
      "ision": 1391,
      "ĠSe": 1392,
      "oud": 1393,
      "Ġenjoy": 1394,
      "Ġservice": 1395,
      "Ġob": 1396,
      "Ġconc": 1397,
      "Ġcareful": 1398,
      "Ġinterest": 1399,
      "Ġmust": 1400,
      "ĠEvery": 1401,
      "rent": 1402,
      "Ġmem": 1403,
      "gy": 1404,
      "ĠTr": 1405,
      "Ġsecond": 1406,
      "Ġmight": 1407,
      "ains": 1408,
      "Ġwind": 1409,
      "ital": 1410,
      "Ġmonth": 1411,
      "Ġcond": 1412,
      "Ġtre": 1413,
      "ccess": 1414,
      "Ġpri": 1415,
      "ĠAll": 1416,
      "Ġclass": 1417,
      "Ġtyp": 1418,
      "ists": 1419,
      "ĠHer": 1420,
      "Ġve": 1421,
      "Ġmarket": 1422,
      "Ġbeautiful": 1423,
      "ĠAd": 1424,
      "ĠOn": 1425,
      "Ġgroup": 1426,
      "ats": 1427,
      "Ġmaking": 1428,
      "Ġname": 1429,
      "Ġheard": 1430,
      "ral": 1431,
      "Ġclean": 1432,
      "Ġpay": 1433,
      "vern": 1434,
      "Ġ:": 1435,
      "ural": 1436,
      "Ġair": 1437,
      "Ġclos": 1438,
      "ĠHis": 1439,
      "ically": 1440,
      "Ġiss": 1441,
      "Ġopt": 1442,
      "Ġsn": 1443,
      "roud": 1444,
      "Ġbre": 1445,
      "ĠInd": 1446,
      "raw": 1447,
      "Ġtoy": 1448,
      "ĠAt": 1449,
      "gest": 1450,
      "ĠBe": 1451,
      "Ġcost": 1452,
      "uss": 1453,
      "Ġel": 1454,
      "Ġwin": 1455,
      "Ġproud": 1456,
      "Ġpower": 1457,
      "ret": 1458,
      "denly": 1459,
      "20": 1460,
      "Ġcouldn": 1461,
      "Ġhop": 1462,
      "ids": 1463,
      "Ġquick": 1464,
      "ah": 1465,
      "iqu": 1466,
      "Ġgrow": 1467,
      "Ġoper": 1468,
      "oice": 1469,
      "ĠCan": 1470,
      "Ġexperience": 1471,
      "ĠPl": 1472,
      "ream": 1473,
      "Ġeffect": 1474,
      "Ġrecord": 1475,
      "Ġoffer": 1476,
      "ately": 1477,
      "aj": 1478,
      "Ġpop": 1479,
      "Ġchildren": 1480,
      "ried": 1481,
      "Ġbeh": 1482,
      "struct": 1483,
      "Ġsafe": 1484,
      "Ġhaving": 1485,
      "Ġmanag": 1486,
      "Ġdata": 1487,
      "Ġsorry": 1488,
      "ention": 1489,
      "Ġjo": 1490,
      "Ġfact": 1491,
      "Ġever": 1492,
      "Ġsince": 1493,
      "Ġincre": 1494,
      "ced": 1495,
      "ĠJack": 1496,
      "ĠSc": 1497,
      "ened": 1498,
      "ĠZ": 1499,
      "ium": 1500,
      "Ġey": 1501,
      "iver": 1502,
      "Ġquest": 1503,
      "Ġrepl": 1504,
      "Ġnight": 1505,
      "Ġbuy": 1506,
      "Ġprot": 1507,
      "arent": 1508,
      "orts": 1509,
      "Ġproble": 1510,
      "Ġest": 1511,
      "Ġstrong": 1512,
      "Ġlarge": 1513,
      "Ġarea": 1514,
      "ĠFr": 1515,
      "ected": 1516,
      "orth": 1517,
      "Ġprovide": 1518,
      "ode": 1519,
      "ĠJohn": 1520,
      "Ġproper": 1521,
      "Ġsit": 1522,
      "Ġfle": 1523,
      "Ġleft": 1524,
      "Ġleg": 1525,
      "Ġwhe": 1526,
      "Ġalong": 1527,
      "iting": 1528,
      "Ġdays": 1529,
      "ĠAnna": 1530,
      "ours": 1531,
      "Ġbelie": 1532,
      "Ġspe": 1533,
      "ense": 1534,
      "Ġ0": 1535,
      "He": 1536,
      "aster": 1537,
      "ĠBl": 1538,
      "ĠSara": 1539,
      "ĠIs": 1540,
      "Ġservices": 1541,
      "Ġbas": 1542,
      "rol": 1543,
      "ten": 1544,
      "oor": 1545,
      "Ġstory": 1546,
      "Ġsoon": 1547,
      "inal": 1548,
      "ued": 1549,
      "rist": 1550,
      "Ġappro": 1551,
      "Ġpos": 1552,
      "ury": 1553,
      "Ġ;": 1554,
      "pping": 1555,
      "ster": 1556,
      "ently": 1557,
      "ox": 1558,
      "aring": 1559,
      "Ġfar": 1560,
      "Ġbed": 1561,
      "Ġfav": 1562,
      "Ġcreat": 1563,
      "arden": 1564,
      "Ġtra": 1565,
      "Ġlevel": 1566,
      "cial": 1567,
      "Ġidea": 1568,
      "aper": 1569,
      "ted": 1570,
      "When": 1571,
      "Ġcat": 1572,
      "Ġwithin": 1573,
      "Ġeng": 1574,
      "iversity": 1575,
      "Ġunderstand": 1576,
      "ries": 1577,
      "ards": 1578,
      "Ġeat": 1579,
      "Ġlearned": 1580,
      "Ġfour": 1581,
      "ware": 1582,
      "ĠQ": 1583,
      "room": 1584,
      "Ġopp": 1585,
      "abb": 1586,
      "Ġpict": 1587,
      "ĠFrom": 1588,
      "Ġbad": 1589,
      "Ġsound": 1590,
      "Ġsong": 1591,
      "ĠMay": 1592,
      "Ġevent": 1593,
      "Ġsuccess": 1594,
      "Ġorder": 1595,
      "What": 1596,
      "Ġmean": 1597,
      "Ġprev": 1598,
      "Ġstore": 1599,
      "Ġmusic": 1600,
      "me": 1601,
      "Ġfac": 1602,
      "Ġagainst": 1603,
      "ploy": 1604,
      "fect": 1605,
      "ma": 1606,
      "ories": 1607,
      "Ġmill": 1608,
      "ĠThat": 1609,
      "ĠDe": 1610,
      "Ġbecame": 1611,
      "ior": 1612,
      "wards": 1613,
      "Ġground": 1614,
      "Ġbit": 1615,
      "Ġmove": 1616,
      "ĠAfter": 1617,
      "iec": 1618,
      "Ġaddition": 1619,
      "Ġhur": 1620,
      "work": 1621,
      "Ġsoft": 1622,
      "Ġtell": 1623,
      "Ġwhy": 1624,
      "Ġdone": 1625,
      "Ġland": 1626,
      "esp": 1627,
      "ission": 1628,
      "atter": 1629,
      "ients": 1630,
      "Ġlater": 1631,
      "ĠEx": 1632,
      "ĠBr": 1633,
      "Ġben": 1634,
      "Ġjob": 1635,
      "iny": 1636,
      "Ġpract": 1637,
      "Ġsal": 1638,
      "Ġelect": 1639,
      "Ġfast": 1640,
      "ĠGr": 1641,
      "Ġ12": 1642,
      "Ġmeet": 1643,
      "dy": 1644,
      "Ġweek": 1645,
      "Ġmag": 1646,
      "Ġcert": 1647,
      "Ġmar": 1648,
      "Ġtoday": 1649,
      "itc": 1650,
      "Ġcurrent": 1651,
      "Ġz": 1652,
      "uff": 1653,
      "Ġside": 1654,
      "Ġmoney": 1655,
      "ator": 1656,
      "Ġpresent": 1657,
      "ĠPh": 1658,
      "med": 1659,
      "Ġview": 1660,
      "Ġste": 1661,
      "Ġinvest": 1662,
      "opped": 1663,
      "Ġthing": 1664,
      "Ġequ": 1665,
      "ney": 1666,
      "Ġhold": 1667,
      "ik": 1668,
      "Ġ15": 1669,
      "Ġwond": 1670,
      "gin": 1671,
      "Ġwebs": 1672,
      "Ġonline": 1673,
      "ism": 1674,
      "ified": 1675,
      "Ġtest": 1676,
      "ĠCol": 1677,
      "ĠCon": 1678,
      "Ġtreat": 1679,
      "Ġpublic": 1680,
      "As": 1681,
      "Ġseason": 1682,
      "rew": 1683,
      "ex": 1684,
      "Ġseem": 1685,
      "Ġlots": 1686,
      "ĠThen": 1687,
      "Ġword": 1688,
      "uddenly": 1689,
      "ery": 1690,
      "ina": 1691,
      "Ġcollect": 1692,
      "oon": 1693,
      "Ġbear": 1694,
      "Ġpretty": 1695,
      "Ġworking": 1696,
      "Ġgarden": 1697,
      "Ġphot": 1698,
      "Ġcourse": 1699,
      "Ġhist": 1700,
      "ĠWith": 1701,
      "'re": 1702,
      "Ġrese": 1703,
      "con": 1704,
      "Ġlocal": 1705,
      "eng": 1706,
      "to": 1707,
      "Ġhugged": 1708,
      "Ġann": 1709,
      "Ġaccess": 1710,
      "Ġ199": 1711,
      "Ġprofess": 1712,
      "Ġpast": 1713,
      "ĠUS": 1714,
      "Ġhot": 1715,
      "Ġhum": 1716,
      "gry": 1717,
      "Ġwal": 1718,
      "Ġvisit": 1719,
      "Ġchang": 1720,
      "Ġwrit": 1721,
      "Ġenough": 1722,
      "por": 1723,
      "illed": 1724,
      "ortun": 1725,
      "Ġothers": 1726,
      "ley": 1727,
      "ency": 1728,
      "port": 1729,
      "Ġsite": 1730,
      "Ġclose": 1731,
      "used": 1732,
      "Ġquality": 1733,
      "Ġsurpr": 1734,
      "ĠWhat": 1735,
      "Ġaff": 1736,
      "If": 1737,
      "ended": 1738,
      "Ġoften": 1739,
      "Ġsever": 1740,
      "Ġterm": 1741,
      "Ġmakes": 1742,
      "Ġjump": 1743,
      "Ġintern": 1744,
      "ĠEng": 1745,
      "Ġperfect": 1746,
      "ases": 1747,
      "Ġorig": 1748,
      "ĠDo": 1749,
      "Ġdem": 1750,
      "Ġwatch": 1751,
      "Mom": 1752,
      "itions": 1753,
      "Ġeveryone": 1754,
      "uce": 1755,
      "ĠOr": 1756,
      "Ġmor": 1757,
      "iron": 1758,
      "ives": 1759,
      "Ġanimals": 1760,
      "let": 1761,
      "Ġstate": 1762,
      "Ġpot": 1763,
      "Ġgovern": 1764,
      "Ġcomplete": 1765,
      "Ġfur": 1766,
      "ills": 1767,
      "ĠâĢĶ": 1768,
      "Ġchange": 1769,
      "Ġface": 1770,
      "ĠChrist": 1771,
      "ĠTo": 1772,
      "Ġseveral": 1773,
      "co": 1774,
      "Ġdoing": 1775,
      "Ġwar": 1776,
      "lish": 1777,
      "Ġmil": 1778,
      "Ġamaz": 1779,
      "aim": 1780,
      "Ġele": 1781,
      "Ġwom": 1782,
      "Ġlaw": 1783,
      "Ġreturn": 1784,
      "icked": 1785,
      "Ġsky": 1786,
      "Ġexplore": 1787,
      "uary": 1788,
      "hy": 1789,
      "Ġmess": 1790,
      "ivid": 1791,
      "Ġfire": 1792,
      "ron": 1793,
      "Ġimpro": 1794,
      "Ġacross": 1795,
      "Ġhig": 1796,
      "ination": 1797,
      "Ġbegan": 1798,
      "Ġtou": 1799,
      "Ġseen": 1800,
      "Ġpiec": 1801,
      "Ġproducts": 1802,
      "omm": 1803,
      "ached": 1804,
      "Ġstudents": 1805,
      "ograp": 1806,
      "ape": 1807,
      "Ġbar": 1808,
      "Ġdoor": 1809,
      "Ġdoll": 1810,
      "ĠMar": 1811,
      "ĠComm": 1812,
      "Yes": 1813,
      "utes": 1814,
      "oring": 1815,
      "ured": 1816,
      "aces": 1817,
      "ush": 1818,
      "Ġfly": 1819,
      "Ġocc": 1820,
      "Ġclim": 1821,
      "iding": 1822,
      "Ġindust": 1823,
      "Ġgetting": 1824,
      "ajor": 1825,
      "Ġi": 1826,
      "ived": 1827,
      "ering": 1828,
      "Ġbased": 1829,
      "Ġeasy": 1830,
      "Ġreport": 1831,
      "Ġwon": 1832,
      "Ġcook": 1833,
      "ĠFl": 1834,
      "iety": 1835,
      "ech": 1836,
      "ably": 1837,
      "ister": 1838,
      "Ġlived": 1839,
      "oci": 1840,
      "ote": 1841,
      "load": 1842,
      "Ġdi": 1843,
      "Ġbecome": 1844,
      "Ġquickly": 1845,
      "ĠCar": 1846,
      "Ġvide": 1847,
      "itive": 1848,
      "app": 1849,
      "Ġcase": 1850,
      "ead": 1851,
      "aterial": 1852,
      ".@": 1853,
      "oint": 1854,
      "Ġfield": 1855,
      "Ġ@.@": 1856,
      "Ġtimes": 1857,
      "Ġneeds": 1858,
      "Ġconn": 1859,
      "Ġactiv": 1860,
      "Ġline": 1861,
      "ique": 1862,
      "Ġ11": 1863,
      "Ġapplic": 1864,
      "Ġtalk": 1865,
      "ability": 1866,
      "Ġparent": 1867,
      "hor": 1868,
      "Ġsug": 1869,
      "ising": 1870,
      "Ġcharac": 1871,
      "Ġsqu": 1872,
      "Ġ/": 1873,
      "Ġpick": 1874,
      "Ġwebsite": 1875,
      "ample": 1876,
      "Ġstat": 1877,
      "cent": 1878,
      "Ġcity": 1879,
      "Ġkept": 1880,
      "Ġask": 1881,
      "pect": 1882,
      "Ġtrad": 1883,
      "Ġknown": 1884,
      "aff": 1885,
      "Ġopened": 1886,
      "ify": 1887,
      "Ġtem": 1888,
      "Ġshort": 1889,
      "ential": 1890,
      "!!": 1891,
      "irc": 1892,
      "Ġhands": 1893,
      "ization": 1894,
      "icy": 1895,
      "yle": 1896,
      "weet": 1897,
      "Ġthough": 1898,
      "Ġmain": 1899,
      "sh": 1900,
      "Ġrele": 1901,
      "Ġstop": 1902,
      "Ġfeeling": 1903,
      "ole": 1904,
      "rown": 1905,
      "son": 1906,
      "ĠMan": 1907,
      "ok": 1908,
      "Ġcut": 1909,
      "alf": 1910,
      "Ġfavor": 1911,
      "une": 1912,
      "iced": 1913,
      "ift": 1914,
      "Ġlow": 1915,
      "Ġcomes": 1916,
      "Ġearly": 1917,
      "Ġfish": 1918,
      "Ġpossible": 1919,
      "Ġindivid": 1920,
      "ots": 1921,
      "ones": 1922,
      "Ġnec": 1923,
      "ored": 1924,
      "Ġcamp": 1925,
      "50": 1926,
      "inc": 1927,
      "Ġinclude": 1928,
      "Ġneeded": 1929,
      "Ġthanked": 1930,
      "atures": 1931,
      "Ġreview": 1932,
      "raft": 1933,
      "rave": 1934,
      "Ġemploy": 1935,
      "Ġcontrol": 1936,
      "ining": 1937,
      "Ġbody": 1938,
      "10": 1939,
      "ails": 1940,
      "ĠMia": 1941,
      "Ġheld": 1942,
      "ript": 1943,
      "ilt": 1944,
      "Ġcontact": 1945,
      "Ġlive": 1946,
      "Ġcry": 1947,
      "mb": 1948,
      "crib": 1949,
      "ĠUnited": 1950,
      "Ġcou": 1951,
      "Ġadm": 1952,
      "Ġplease": 1953,
      "of": 1954,
      "Ġseries": 1955,
      "Ġyoung": 1956,
      "where": 1957,
      "Ġmaterial": 1958,
      "Ġadvent": 1959,
      "Ġcreate": 1960,
      "Ġmajor": 1961,
      "Ġbreak": 1962,
      "ghed": 1963,
      "Ġ30": 1964,
      "osed": 1965,
      "ĠCent": 1966,
      "Ġpar": 1967,
      "rod": 1968,
      "lished": 1969,
      "bo": 1970,
      "So": 1971,
      "Ġselect": 1972,
      "osp": 1973,
      "Ġworks": 1974,
      "Ġpersonal": 1975,
      "Ġmembers": 1976,
      "ĠNo": 1977,
      "Ġsat": 1978,
      "ĠUniversity": 1979,
      "Ġlaughed": 1980,
      "Ġmeans": 1981,
      "Ġoffic": 1982,
      "ording": 1983,
      "Ġdev": 1984,
      "Ġready": 1985,
      "Ġlim": 1986,
      "Tom": 1987,
      "ĠâĢĺ": 1988,
      "ĠPr": 1989,
      "ĠHowever": 1990,
      "ows": 1991,
      "Ġvers": 1992,
      "ball": 1993,
      "err": 1994,
      "Ġkey": 1995,
      "ĠThese": 1996,
      "ĠAmerican": 1997,
      "'ll": 1998,
      "Ġloud": 1999,
      "Ġbuilding": 2000,
      "ready": 2001,
      "leep": 2002,
      "Ġcompet": 2003,
      "Ġcover": 2004,
      "Ġsomeone": 2005,
      "itchen": 2006,
      ",@": 2007,
      "Ġ@,@": 2008,
      "istr": 2009,
      "uly": 2010,
      "icle": 2011,
      "ances": 2012,
      "Ġeverything": 2013,
      "Ġfoc": 2014,
      "Ġcountry": 2015,
      "the": 2016,
      "though": 2017,
      "That": 2018,
      "kay": 2019,
      "Ġeyes": 2020,
      "ienc": 2021,
      "Ġwarm": 2022,
      "Ġnet": 2023,
      "Ġfilm": 2024,
      "Ġlisten": 2025,
      "Ġdraw": 2026,
      "Ġaccount": 2027,
      "Ġwhite": 2028,
      "ither": 2029,
      "Ġresearch": 2030,
      "Ġcoming": 2031,
      "ober": 2032,
      "Ġblue": 2033,
      "Ġbring": 2034,
      "ER": 2035,
      "Ġcolor": 2036,
      ".,": 2037,
      "Ġdevelopment": 2038,
      "enn": 2039,
      "Ġmult": 2040,
      "Ġnod": 2041,
      "Ġtable": 2042,
      "Ġcommunity": 2043,
      "uit": 2044,
      "Ġfollowing": 2045,
      "reed": 2046,
      "ĠMy": 2047,
      "Ġpaper": 2048,
      "Ġ16": 2049,
      "most": 2050,
      "ĠGod": 2051,
      "Ġappear": 2052,
      "Ġ17": 2053,
      "illy": 2054,
      "ending": 2055,
      "reet": 2056,
      "Ġalready": 2057,
      "Ġcheck": 2058,
      "uced": 2059,
      "Ġfall": 2060,
      "unch": 2061,
      "Ġenv": 2062,
      "Ġdress": 2063,
      "Ġbehind": 2064,
      "Ġtool": 2065,
      "No": 2066,
      "Ġarri": 2067,
      "Ġmillion": 2068,
      "irt": 2069,
      "Ġrock": 2070,
      "fort": 2071,
      "Ġworked": 2072,
      "par": 2073,
      "Ġwalked": 2074,
      "wer": 2075,
      "Ġkids": 2076,
      "Ġanything": 2077,
      "ĠCo": 2078,
      "Ġhurt": 2079,
      "Ġnon": 2080,
      "Ġrunning": 2081,
      "ĠWor": 2082,
      "fer": 2083,
      "Ġheart": 2084,
      "ony": 2085,
      "ays": 2086,
      "Ġwonder": 2087,
      "sel": 2088,
      "Ġwall": 2089,
      "Ġmiss": 2090,
      "ded": 2091,
      "Ġgames": 2092,
      "Ġant": 2093,
      "use": 2094,
      "Ġcomb": 2095,
      "yc": 2096,
      "ĠEm": 2097,
      "Ġspecific": 2098,
      "urs": 2099,
      "aps": 2100,
      "Ġri": 2101,
      "ĠEd": 2102,
      "aid": 2103,
      "Åĵ": 2104,
      "Ġwat": 2105,
      "Ġliving": 2106,
      "Ġmen": 2107,
      "ps": 2108,
      "Ġrequire": 2109,
      "Ġmind": 2110,
      "Ġparticular": 2111,
      "Ġgovernment": 2112,
      "ann": 2113,
      "Ġwood": 2114,
      "Ġsingle": 2115,
      "ians": 2116,
      "Ġhours": 2117,
      "Ġonce": 2118,
      "Ġlost": 2119,
      "oose": 2120,
      "aken": 2121,
      "Ġbrave": 2122,
      "Ġpain": 2123,
      "Ġcool": 2124,
      "ensive": 2125,
      "Ġfell": 2126,
      "Ġbenef": 2127,
      "ips": 2128,
      "Ġpage": 2129,
      "ĠOur": 2130,
      "Ġca": 2131,
      "uture": 2132,
      "acks": 2133,
      "Ġprice": 2134,
      "Ġwalking": 2135,
      "Let": 2136,
      "Ġcompan": 2137,
      "Ġcal": 2138,
      "aced": 2139,
      "Ġstick": 2140,
      "Ġsour": 2141,
      "ĠEu": 2142,
      "Ġspace": 2143,
      "acy": 2144,
      "Ġeduc": 2145,
      "âĢľ": 2146,
      "Ġport": 2147,
      "ĠDec": 2148,
      "Ġsum": 2149,
      "gle": 2150,
      "ands": 2151,
      "ction": 2152,
      "Ġsuper": 2153,
      "iod": 2154,
      "Ġstep": 2155,
      "Ġclear": 2156,
      "Ġinvol": 2157,
      "asure": 2158,
      "Ġflew": 2159,
      "Ġleav": 2160,
      "Ġpress": 2161,
      ",âĢĿ": 2162,
      "Ġpicked": 2163,
      "Ġangry": 2164,
      "ises": 2165,
      "ĠÂ": 2166,
      "30": 2167,
      "ateg": 2168,
      "Ġenc": 2169,
      "ele": 2170,
      "Ġvideo": 2171,
      "ama": 2172,
      "Ġkitchen": 2173,
      "urity": 2174,
      "hod": 2175,
      "Ġans": 2176,
      "Ġens": 2177,
      "An": 2178,
      "aby": 2179,
      "ucy": 2180,
      "Ġcrit": 2181,
      "ĠRes": 2182,
      "Ġbelow": 2183,
      "St": 2184,
      "Ġfloor": 2185,
      "Ġconsider": 2186,
      "Ġopportun": 2187,
      "Ġep": 2188,
      "âĢ¦": 2189,
      "Ġnoise": 2190,
      "Ġelse": 2191,
      "ĠAust": 2192,
      "Ġrange": 2193,
      "aur": 2194,
      "Ġtaking": 2195,
      "Ġident": 2196,
      "Ġdue": 2197,
      "Ġcertain": 2198,
      "ilar": 2199,
      "Ġproblem": 2200,
      "dle": 2201,
      "Ġlooks": 2202,
      "Ġfive": 2203,
      "resent": 2204,
      "ai": 2205,
      "atic": 2206,
      "Ġdam": 2207,
      "Ġhelped": 2208,
      "itch": 2209,
      "Ġparents": 2210,
      "Ġshowed": 2211,
      "Ġfix": 2212,
      "ĠFe": 2213,
      "ĠÃ¢": 2214,
      "anks": 2215,
      "Ġgiven": 2216,
      "over": 2217,
      "ironment": 2218,
      "Ġleast": 2219,
      "Ġstudy": 2220,
      "Ġforest": 2221,
      "not": 2222,
      "Ġmid": 2223,
      "Ġfavorite": 2224,
      "ulation": 2225,
      "Ġblack": 2226,
      "Ġpurch": 2227,
      "Ġrain": 2228,
      "Ġsearch": 2229,
      "Ġfund": 2230,
      "Ġ14": 2231,
      "Ġtouch": 2232,
      "19": 2233,
      "more": 2234,
      "idge": 2235,
      "Ġener": 2236,
      "Ġbooks": 2237,
      "Ġdeal": 2238,
      "Ġminutes": 2239,
      "fact": 2240,
      "conom": 2241,
      "erence": 2242,
      "ady": 2243,
      "Ġwait": 2244,
      "ĠComp": 2245,
      "Ġexample": 2246,
      "ummy": 2247,
      "icult": 2248,
      "Ġpull": 2249,
      "Ġfuture": 2250,
      "aught": 2251,
      "ĠSu": 2252,
      "Ġvol": 2253,
      "Ġtrying": 2254,
      "come": 2255,
      "ĠBob": 2256,
      "Ġmot": 2257,
      "Ġcirc": 2258,
      "Ġfront": 2259,
      "Ġtown": 2260,
      "Ġpriv": 2261,
      "rope": 2262,
      "Ġvoice": 2263,
      "itten": 2264,
      "go": 2265,
      "Ġheav": 2266,
      "Ġanal": 2267,
      "ecially": 2268,
      "Ġroad": 2269,
      "Ġtast": 2270,
      "Ġhimself": 2271,
      "urch": 2272,
      "ĠAm": 2273,
      "ument": 2274,
      "Ġ100": 2275,
      "Ġtot": 2276,
      "Ġsuggest": 2277,
      "Ġsocial": 2278,
      "She": 2279,
      "Ġgrand": 2280,
      "âĦ": 2281,
      "Ġclaim": 2282,
      "asing": 2283,
      "Ġgreen": 2284,
      "Ġstopped": 2285,
      "Ġtravel": 2286,
      "ene": 2287,
      "inally": 2288,
      "Ġwhole": 2289,
      "ĠSy": 2290,
      "Ġbelieve": 2291,
      "Ġparty": 2292,
      "ĠX": 2293,
      "ĠIntern": 2294,
      "ches": 2295,
      "Ġfurther": 2296,
      "Ġslow": 2297,
      "ĠDr": 2298,
      "âĦ¢": 2299,
      "ule": 2300,
      "Ġfoot": 2301,
      "Ġbegin": 2302,
      "iam": 2303,
      "Tim": 2304,
      "Ġabove": 2305,
      "ĠGu": 2306,
      "Ġflowers": 2307,
      "Ġsmile": 2308,
      "Ġperiod": 2309,
      "Ġclimb": 2310,
      "ese": 2311,
      "Ġ198": 2312,
      "Ġcompanies": 2313,
      "Ġshiny": 2314,
      "Ġwide": 2315,
      "Ġsho": 2316,
      "Ġvalue": 2317,
      "Ġet": 2318,
      "Ġhair": 2319,
      "Ġfeatures": 2320,
      "utions": 2321,
      "isk": 2322,
      "sp": 2323,
      "Ġrespons": 2324,
      "Ġmonths": 2325,
      "Ġcand": 2326,
      "Ġreached": 2327,
      "Ġ13": 2328,
      "Ġesp": 2329,
      "Ġmaint": 2330,
      "Ġlate": 2331,
      "rel": 2332,
      "Ġcommon": 2333,
      "ĠLet": 2334,
      "Ġindustry": 2335,
      "Ġtour": 2336,
      "Ġprop": 2337,
      "Ġhope": 2338,
      "ilities": 2339,
      "Thank": 2340,
      "Ġamong": 2341,
      "oke": 2342,
      "Ġmach": 2343,
      "Ġactually": 2344,
      "for": 2345,
      "ges": 2346,
      "Ġleave": 2347,
      "atural": 2348,
      "Ġhalf": 2349,
      "Ġyell": 2350,
      "Ġamazing": 2351,
      "Ġbag": 2352,
      "After": 2353,
      "IN": 2354,
      "Ġchall": 2355,
      "Ġhun": 2356,
      "\".": 2357,
      "zy": 2358,
      "Ġsand": 2359,
      "Ġtruck": 2360,
      "ĠNow": 2361,
      "Ġdiscuss": 2362,
      "Ġinstall": 2363,
      "ume": 2364,
      "Ġoffers": 2365,
      "Ġnoticed": 2366,
      "ĠBrit": 2367,
      "Ġjour": 2368,
      "play": 2369,
      "ĠEn": 2370,
      "ĠApp": 2371,
      "ĠEurope": 2372,
      "ogn": 2373,
      "Ġreach": 2374,
      "urance": 2375,
      "iles": 2376,
      "artment": 2377,
      "ights": 2378,
      "Ġmix": 2379,
      "ĠJan": 2380,
      "Ġauthor": 2381,
      "ask": 2382,
      "ĠWorld": 2383,
      "Ġreceived": 2384,
      "Ġhistory": 2385,
      "Ġamount": 2386,
      "Ġpack": 2387,
      "Ġquestions": 2388,
      "Ġcult": 2389,
      "pper": 2390,
      "Ġcontent": 2391,
      "Ġbrother": 2392,
      "Ġrecomm": 2393,
      "Ġreason": 2394,
      "Ġ[": 2395,
      "arr": 2396,
      "Ġitem": 2397,
      "af": 2398,
      "ino": 2399,
      "idence": 2400,
      "ocks": 2401,
      "Ġla": 2402,
      "Ġess": 2403,
      "Ġbott": 2404,
      "roll": 2405,
      "Ġbright": 2406,
      "Ġsell": 2407,
      "ffic": 2408,
      "ners": 2409,
      "anger": 2410,
      "Ġhigher": 2411,
      "Ġenergy": 2412,
      "sc": 2413,
      "chie": 2414,
      "Ġproperty": 2415,
      "inks": 2416,
      "Ġexam": 2417,
      "Ġcard": 2418,
      "Ġtax": 2419,
      "ES": 2420,
      "Ã©": 2421,
      "Ġdark": 2422,
      "ze": 2423,
      "Ġareas": 2424,
      "acher": 2425,
      "Ġfair": 2426,
      "Ġtraining": 2427,
      "Ġsweet": 2428,
      "ĠMed": 2429,
      "rought": 2430,
      "Ġperformance": 2431,
      "Ġvarious": 2432,
      "Ġwords": 2433,
      "Ġcharacter": 2434,
      "itting": 2435,
      "Ġespecially": 2436,
      "Ġalmost": 2437,
      "ison": 2438,
      "Ġoffice": 2439,
      "Ġprofessional": 2440,
      "Ġsleep": 2441,
      "Ġboat": 2442,
      "ĠSouth": 2443,
      "ĠNorth": 2444,
      "Ġpicture": 2445,
      "ĠGe": 2446,
      "Ġhuman": 2447,
      "lement": 2448,
      "Ġhear": 2449,
      "Ġthird": 2450,
      "Ġ25": 2451,
      "bum": 2452,
      "Ġmorning": 2453,
      "nam": 2454,
      "Ġmethod": 2455,
      "Ġenvironment": 2456,
      "Ġinit": 2457,
      "ĠStates": 2458,
      "Ġdoesn": 2459,
      "Ġsize": 2460,
      "Ġyet": 2461,
      "Ġlonger": 2462,
      "Ġoriginal": 2463,
      "Ġsix": 2464,
      "olly": 2465,
      "ĠAss": 2466,
      "Ġbuilt": 2467,
      "anced": 2468,
      "abor": 2469,
      "Ġmother": 2470,
      "Ġconstruct": 2471,
      "Ġdescrib": 2472,
      "ĠGo": 2473,
      "ming": 2474,
      "Ġeither": 2475,
      "ging": 2476,
      "ĠApr": 2477,
      "Ġpercent": 2478,
      "Ġdig": 2479,
      "Ġsometimes": 2480,
      "Ġwrong": 2481,
      "wh": 2482,
      "ĠMin": 2483,
      "Ġrelations": 2484,
      "ĠLucy": 2485,
      "omes": 2486,
      "ĠNe": 2487,
      "yl": 2488,
      "stit": 2489,
      "Ġcake": 2490,
      "itted": 2491,
      "Ġfollowed": 2492,
      "Ġtakes": 2493,
      "empt": 2494,
      "Ġhowever": 2495,
      "Ġcontinued": 2496,
      "ĠCity": 2497,
      "Ġdifficult": 2498,
      "ding": 2499,
      "book": 2500,
      "Ġspr": 2501,
      "cript": 2502,
      "âĢĶ": 2503,
      "Ġaud": 2504,
      "Ġra": 2505,
      "Ġcomfort": 2506,
      "Ġtechnology": 2507,
      "Ġpopular": 2508,
      "Ġdin": 2509,
      "Ġentire": 2510,
      "Ġhappened": 2511,
      "Ġtaken": 2512,
      "selves": 2513,
      "Ġself": 2514,
      "ental": 2515,
      "Ġcast": 2516,
      "aged": 2517,
      "Ġdeep": 2518,
      "iously": 2519,
      "Ġroll": 2520,
      "uge": 2521,
      "Ġfinal": 2522,
      "Ġaccept": 2523,
      "Ġdeterm": 2524,
      "Ġcompl": 2525,
      "Ġimprove": 2526,
      "ively": 2527,
      "Ġwomen": 2528,
      "icated": 2529,
      "lege": 2530,
      "ables": 2531,
      "ĠDad": 2532,
      "Ġsignific": 2533,
      "Ġmoment": 2534,
      "Ġwonderful": 2535,
      "Ġcustomers": 2536,
      "Ġresults": 2537,
      "Ġ24": 2538,
      "Ġprep": 2539,
      "'ve": 2540,
      "ledge": 2541,
      "ĠMc": 2542,
      "12": 2543,
      "ication": 2544,
      "Ġlaugh": 2545,
      "Ġforg": 2546,
      "ĠMr": 2547,
      "ON": 2548,
      "Ġaddress": 2549,
      "ply": 2550,
      "Ġadded": 2551,
      "ĠServ": 2552,
      "ned": 2553,
      "Ġfit": 2554,
      "Ġsimilar": 2555,
      "Ġnodded": 2556,
      "Ġcars": 2557,
      "Ġrequired": 2558,
      "Ġestab": 2559,
      "ĠYork": 2560,
      "There": 2561,
      "Ġcloser": 2562,
      "Ġunique": 2563,
      "umb": 2564,
      "Ġsent": 2565,
      "ĠChe": 2566,
      "Ġdest": 2567,
      "Ġstaff": 2568,
      "ĠBy": 2569,
      "Ġdesigned": 2570,
      "âĤ¬âĦ¢": 2571,
      "ĠNational": 2572,
      "Ġfocus": 2573,
      "Ġwatched": 2574,
      "Ġcred": 2575,
      "Ġdro": 2576,
      "ĠCal": 2577,
      "Ġslide": 2578,
      "Ġfinished": 2579,
      "Ġmanagement": 2580,
      "Ġbutter": 2581,
      "Ġwriting": 2582,
      "Ġap": 2583,
      "ĠCount": 2584,
      "How": 2585,
      "ĠAustral": 2586,
      "vent": 2587,
      "Ġtowards": 2588,
      "Ġfight": 2589,
      "Ġrepresent": 2590,
      "Ġengine": 2591,
      "Ġphone": 2592,
      "ĠOct": 2593,
      "Ġwhether": 2594,
      "ground": 2595,
      "ibility": 2596,
      "ĠCont": 2597,
      "Ġposition": 2598,
      "Ġforward": 2599,
      "Ġdeb": 2600,
      "Ġstyle": 2601,
      "Ġtype": 2602,
      "ili": 2603,
      "Ġhon": 2604,
      "eal": 2605,
      "Ġassist": 2606,
      "Ġsimple": 2607,
      "Ġsuccessful": 2608,
      "Ġcreated": 2609,
      "Ġcop": 2610,
      "Ġbrought": 2611,
      "isc": 2612,
      "Ġhost": 2613,
      "Ġeconom": 2614,
      "Ġfinanc": 2615,
      "Ġexperienc": 2616,
      "val": 2617,
      "Ġprob": 2618,
      "uation": 2619,
      "key": 2620,
      "Ġprovided": 2621,
      "Ġ2018": 2622,
      "Ġlay": 2623,
      "kes": 2624,
      "Ġpaint": 2625,
      "Ġcomput": 2626,
      "AT": 2627,
      "Ġincluded": 2628,
      "Ġcoll": 2629,
      "eter": 2630,
      "ĠApril": 2631,
      "Ġalbum": 2632,
      "ĠMe": 2633,
      "Ġ197": 2634,
      "Ġinsp": 2635,
      "Ġ50": 2636,
      "Ġmedia": 2637,
      "ĠSome": 2638,
      "Ġissues": 2639,
      "Ġexist": 2640,
      "Ġprint": 2641,
      "...": 2642,
      "Ġparticip": 2643,
      "Ġachie": 2644,
      "AS": 2645,
      "Ben": 2646,
      "vert": 2647,
      "ĠRep": 2648,
      "bor": 2649,
      "Ġprovides": 2650,
      "ken": 2651,
      "Ġround": 2652,
      "iday": 2653,
      "Ġrole": 2654,
      "eth": 2655,
      "Ġphys": 2656,
      "Ġcell": 2657,
      "AN": 2658,
      "Ġdoc": 2659,
      "Ġoil": 2660,
      "ators": 2661,
      "Ġtrack": 2662,
      "Ġquestion": 2663,
      "ler": 2664,
      "rog": 2665,
      "Ġtext": 2666,
      "astic": 2667,
      "Ġtal": 2668,
      "ops": 2669,
      "Ġrespect": 2670,
      "ĠSept": 2671,
      "Ġrad": 2672,
      "Ġcold": 2673,
      "Ġokay": 2674,
      "Ġfeature": 2675,
      "ille": 2676,
      "Ġweb": 2677,
      "ĠWill": 2678,
      "Ġchoose": 2679,
      "Ġbow": 2680,
      "ĠSec": 2681,
      "Ġage": 2682,
      "ĠWar": 2683,
      "resh": 2684,
      "Ġwel": 2685,
      "Ġcontract": 2686,
      "tt": 2687,
      "Ġgrass": 2688,
      "ru": 2689,
      "Can": 2690,
      "For": 2691,
      "Look": 2692,
      "hern": 2693,
      "Ġinfl": 2694,
      "Ġstruct": 2695,
      "Ġdelic": 2696,
      "ification": 2697,
      "Ġglad": 2698,
      "ĠGerm": 2699,
      "ĠSuddenly": 2700,
      "ĠJune": 2701,
      "Ġbal": 2702,
      "Ġmatter": 2703,
      "Ġinstead": 2704,
      "ĠSchool": 2705,
      "Ġbaby": 2706,
      "ĠNot": 2707,
      "ites": 2708,
      "ĠYour": 2709,
      "ĠAug": 2710,
      "Ġshout": 2711,
      "ĠBar": 2712,
      "Ġcatch": 2713,
      "Ġdiv": 2714,
      "Ġreleased": 2715,
      "Ġquite": 2716,
      "Ġsold": 2717,
      "Ġdream": 2718,
      "Ġtit": 2719,
      "Ġsignificant": 2720,
      "Ġworry": 2721,
      "Ġincludes": 2722,
      "Ġevents": 2723,
      "ĠSm": 2724,
      "angu": 2725,
      "Ġblog": 2726,
      "Ġbirds": 2727,
      "Ġmat": 2728,
      "Ġpan": 2729,
      "Ġnecess": 2730,
      "oom": 2731,
      "Ġrabb": 2732,
      "ĠState": 2733,
      "Ġyourself": 2734,
      "Ġhappen": 2735,
      "eral": 2736,
      "AR": 2737,
      "airs": 2738,
      "Ġregular": 2739,
      "uction": 2740,
      "ana": 2741,
      "Ġthroughout": 2742,
      "Ġturned": 2743,
      "ufact": 2744,
      "Ġdou": 2745,
      "ila": 2746,
      "ĠPark": 2747,
      "Ġcannot": 2748,
      "Ġepis": 2749,
      "Ġversion": 2750,
      "Ġgen": 2751,
      "Ġdoct": 2752,
      "Ġadventure": 2753,
      "head": 2754,
      "Ġdownload": 2755,
      "Ġrequest": 2756,
      "hel": 2757,
      "11": 2758,
      "Ġpu": 2759,
      "Ġrelationship": 2760,
      "ung": 2761,
      "Ġnatural": 2762,
      "Ġreplied": 2763,
      "lus": 2764,
      "Ġfig": 2765,
      "irth": 2766,
      "Ġprotect": 2767,
      "Ġupd": 2768,
      "ival": 2769,
      "Ġrecogn": 2770,
      "nov": 2771,
      "era": 2772,
      "itional": 2773,
      "irm": 2774,
      "Ġanymore": 2775,
      "Ġice": 2776,
      "Ġassoci": 2777,
      "iant": 2778,
      "Ġteacher": 2779,
      "ĠIm": 2780,
      "ĠMarch": 2781,
      "Ġfinally": 2782,
      "Ġproblems": 2783,
      "Ġmount": 2784,
      "olution": 2785,
      "ples": 2786,
      "ires": 2787,
      "Ġlikely": 2788,
      "ĠJust": 2789,
      "bye": 2790,
      "ham": 2791,
      "ĠAb": 2792,
      "Ġtrees": 2793,
      "Ġord": 2794,
      "Ġrealized": 2795,
      "ĠGl": 2796,
      "Ġthank": 2797,
      "ades": 2798,
      "Ġpictures": 2799,
      "60": 2800,
      "Ġmodern": 2801,
      "Ġregard": 2802,
      "Ġways": 2803,
      "board": 2804,
      "Ġrace": 2805,
      "Ġmatch": 2806,
      "Suddenly": 2807,
      "ĠWhile": 2808,
      "Ġemail": 2809,
      "ĠEl": 2810,
      "Ġintrod": 2811,
      "medi": 2812,
      "ees": 2813,
      "Ġmoved": 2814,
      "Ġstar": 2815,
      "Ġnothing": 2816,
      "ĠSeptember": 2817,
      "Ġdeath": 2818,
      "Ġstri": 2819,
      "ĠCanad": 2820,
      "Ġusually": 2821,
      "erc": 2822,
      "ĠJuly": 2823,
      "Ġpolit": 2824,
      "Ġrather": 2825,
      "At": 2826,
      "ĠPe": 2827,
      "Ġwants": 2828,
      "Ġlearning": 2829,
      "ceed": 2830,
      "Ġproduction": 2831,
      "Don": 2832,
      "Ġhit": 2833,
      "face": 2834,
      "Ġfail": 2835,
      "Ġanyone": 2836,
      "Ġshows": 2837,
      "Ġcustomer": 2838,
      "Ġbath": 2839,
      "Ġsees": 2840,
      "Ġtotal": 2841,
      "Ġsnow": 2842,
      "Ġpoints": 2843,
      "ĠWest": 2844,
      "Ġabs": 2845,
      "Ġcoun": 2846,
      "Ġband": 2847,
      "Ġensure": 2848,
      "apt": 2849,
      "ĠOctober": 2850,
      "elebr": 2851,
      "Ġfriendly": 2852,
      "apan": 2853,
      "Ġdrive": 2854,
      "And": 2855,
      "gg": 2856,
      "ĠRec": 2857,
      "Ġyes": 2858,
      "ety": 2859,
      "ief": 2860,
      "Ġtrue": 2861,
      "Ġresour": 2862,
      "Ġwasn": 2863,
      "Ġcurious": 2864,
      "Ġwindow": 2865,
      "epend": 2866,
      "pe": 2867,
      "ww": 2868,
      "Ġplant": 2869,
      "Ġaction": 2870,
      "Ġideas": 2871,
      "ĠKe": 2872,
      "Ġremember": 2873,
      "Ġcolors": 2874,
      "Ġobs": 2875,
      "Ġsystems": 2876,
      "Ġindividual": 2877,
      "rect": 2878,
      "Ġmodel": 2879,
      "ĠMark": 2880,
      "time": 2881,
      "Ġlit": 2882,
      "ĠAugust": 2883,
      "Ġoptions": 2884,
      "ression": 2885,
      "ope": 2886,
      "acked": 2887,
      "ĠPar": 2888,
      "ules": 2889,
      "Ġissue": 2890,
      "ĠAf": 2891,
      "Ġsave": 2892,
      "Ġextra": 2893,
      "Ġsimply": 2894,
      "Ġpractice": 2895,
      "15": 2896,
      "reme": 2897,
      "ĠBo": 2898,
      "Ġrabbit": 2899,
      "Ġloss": 2900,
      "Ġpiece": 2901,
      "Ġenjoyed": 2902,
      "Ġcarry": 2903,
      "obile": 2904,
      "Ġsubject": 2905,
      "Ġknowledge": 2906,
      "Ġobject": 2907,
      "Ġchanges": 2908,
      "Ġreceive": 2909,
      "Ġswim": 2910,
      "augh": 2911,
      "Ġveh": 2912,
      "ram": 2913,
      "Ġskin": 2914,
      "Ġlocated": 2915,
      "Ġhor": 2916,
      "ĠJanuary": 2917,
      "agon": 2918,
      "Ġda": 2919,
      "ĠDon": 2920,
      "ipment": 2921,
      "Ġincrease": 2922,
      "iple": 2923,
      "Ġ2017": 2924,
      "Ġgeneral": 2925,
      "Ġteach": 2926,
      "verage": 2927,
      "Ġexpect": 2928,
      "Ġclot": 2929,
      "mber": 2930,
      "Ġalone": 2931,
      "Ġwritten": 2932,
      "Ġyellow": 2933,
      "ecut": 2934,
      "Ġnorm": 2935,
      "aging": 2936,
      "Ġwish": 2937,
      "ĠTe": 2938,
      "ĠTw": 2939,
      "Her": 2940,
      "zz": 2941,
      "Ġbrand": 2942,
      "Ġadditional": 2943,
      "Ġfarm": 2944,
      "Ġgives": 2945,
      "Ġgone": 2946,
      "obal": 2947,
      "Ġinsurance": 2948,
      "Ġ194": 2949,
      "ĠSpot": 2950,
      "Ġmov": 2951,
      "ĠSue": 2952,
      "Ġweeks": 2953,
      "Ġrisk": 2954,
      "Ġple": 2955,
      "Ġbill": 2956,
      "Ġled": 2957,
      "18": 2958,
      "Ġpet": 2959,
      "Ġgoodbye": 2960,
      "Ġnews": 2961,
      "Ġboard": 2962,
      "Ġhuge": 2963,
      "Ġmember": 2964,
      "Ġcross": 2965,
      "Ġful": 2966,
      "reg": 2967,
      "ĠJapan": 2968,
      "rote": 2969,
      "ublic": 2970,
      "Ġautom": 2971,
      "Ġsecurity": 2972,
      "iol": 2973,
      "ux": 2974,
      "Ġwrite": 2975,
      "ĠQu": 2976,
      "rec": 2977,
      "Ġsepar": 2978,
      "Ġetc": 2979,
      "Ġneigh": 2980,
      "ĠDes": 2981,
      "Ġspeed": 2982,
      "ĠPer": 2983,
      "ovember": 2984,
      "ĠJane": 2985,
      "Ġarrived": 2986,
      "lt": 2987,
      "Ġsend": 2988,
      "OR": 2989,
      "unny": 2990,
      "Ġfinancial": 2991,
      "Ġ2016": 2992,
      "Ġattempt": 2993,
      "set": 2994,
      "ales": 2995,
      "Ġprojects": 2996,
      "oid": 2997,
      "Ġcelebr": 2998,
      "iling": 2999,
      "Ġspeak": 3000,
      "Ġtrain": 3001,
      "Ġpurp": 3002,
      "Ġsoftware": 3003,
      "Ġdate": 3004,
      "Ġill": 3005,
      "Ġmanufact": 3006,
      "Ġfilled": 3007,
      "light": 3008,
      "Ġhol": 3009,
      "Ġcentury": 3010,
      "Ġconnect": 3011,
      "Ġx": 3012,
      "Ġsett": 3013,
      "ĠBritish": 3014,
      "Ġdetails": 3015,
      "arget": 3016,
      "Ġdry": 3017,
      "ĠCor": 3018,
      "Ġleaves": 3019,
      "ague": 3020,
      "king": 3021,
      "ĠHigh": 3022,
      "ĠSw": 3023,
      "Ġsmart": 3024,
      "Ġjoin": 3025,
      "ĠKing": 3026,
      "Ġgrabb": 3027,
      "Ġimpact": 3028,
      "stant": 3029,
      "egr": 3030,
      "Ġfre": 3031,
      "Ġcontinue": 3032,
      "Ġstories": 3033,
      "ĠPart": 3034,
      "ude": 3035,
      "Ġprobably": 3036,
      "Ġheavy": 3037,
      "ĠEveryone": 3038,
      "Ġgoal": 3039,
      "Ġsummer": 3040,
      "Ġapproach": 3041,
      "Ġbur": 3042,
      "Ġdom": 3043,
      "Ġsurprise": 3044,
      "Ġtele": 3045,
      "itor": 3046,
      "Ġfeed": 3047,
      "Ġcarefully": 3048,
      "Ġnetwork": 3049,
      "ĠNovember": 3050,
      "Ġcareer": 3051,
      "Ġago": 3052,
      "Ġpieces": 3053,
      "attle": 3054,
      "Ġapplication": 3055,
      "imum": 3056,
      "Ġeducation": 3057,
      "ĠStud": 3058,
      "Ġtreatment": 3059,
      "Ġprivate": 3060,
      "Ġlif": 3061,
      "Ġrout": 3062,
      "Ġtired": 3063,
      "ĠMommy": 3064,
      "Ġchoice": 3065,
      "Ġfunny": 3066,
      "Ġvariety": 3067,
      "cl": 3068,
      "Ġlangu": 3069,
      "Ġwrote": 3070,
      "Ġarch": 3071,
      "ĠJoe": 3072,
      "Ġ21": 3073,
      "aul": 3074,
      "Ġones": 3075,
      "Ġreading": 3076,
      "nal": 3077,
      "Ġtur": 3078,
      "eared": 3079,
      "ĠAct": 3080,
      "Ġut": 3081,
      "Ġ000": 3082,
      "Ġbase": 3083,
      "Ġpath": 3084,
      "Ġfeet": 3085,
      "hib": 3086,
      "sidered": 3087,
      "ĠReg": 3088,
      "ED": 3089,
      "Ġhelping": 3090,
      "Ġimage": 3091,
      "Ġmachine": 3092,
      "Ġcapt": 3093,
      "ipped": 3094,
      "adem": 3095,
      "Ġsaf": 3096,
      "Ġskills": 3097,
      "Ġprior": 3098,
      "ograph": 3099,
      "Ġaccording": 3100,
      "Ġdinner": 3101,
      "ĠPlease": 3102,
      "isy": 3103,
      "de": 3104,
      "Ġ40": 3105,
      "Ġneg": 3106,
      "Ġruns": 3107,
      "Ġsales": 3108,
      "ĠAcc": 3109,
      "Ġactivities": 3110,
      "ĠPol": 3111,
      "Ġcontrib": 3112,
      "Ġtall": 3113,
      "Ġgrabbed": 3114,
      "ĠDep": 3115,
      "Ġfinish": 3116,
      "Ġjumped": 3117,
      "iction": 3118,
      "Ġcream": 3119,
      "Ġrate": 3120,
      "cast": 3121,
      "erson": 3122,
      "hest": 3123,
      "Ġconcern": 3124,
      "Ġlady": 3125,
      "Ġstandard": 3126,
      "Ġshared": 3127,
      "ĠBu": 3128,
      "Ġcurrently": 3129,
      "Ġsil": 3130,
      "Ġprim": 3131,
      "olf": 3132,
      "Ġconsidered": 3133,
      "Ġrelease": 3134,
      "Ġ2015": 3135,
      "dom": 3136,
      "atory": 3137,
      "âĢĵ": 3138,
      "mercial": 3139,
      "Ġowner": 3140,
      "Ġdefin": 3141,
      "Ġspot": 3142,
      "Ġflower": 3143,
      "ĠChar": 3144,
      "Ġlower": 3145,
      "Ġweight": 3146,
      "Ġinteresting": 3147,
      "Ġclients": 3148,
      "Ġdelicious": 3149,
      "Ġnational": 3150,
      "ppy": 3151,
      "Ġopportunity": 3152,
      "emb": 3153,
      "iring": 3154,
      ".âĢĿ": 3155,
      "Ġformer": 3156,
      "izing": 3157,
      "Ġagreed": 3158,
      "Ġeasily": 3159,
      "Ġwear": 3160,
      "Ġspent": 3161,
      "Ġscreen": 3162,
      "sy": 3163,
      "Jo": 3164,
      "ĠDecember": 3165,
      "Ġrecommend": 3166,
      "reng": 3167,
      "Ġconsum": 3168,
      "Ġtrust": 3169,
      "Ġitself": 3170,
      "pro": 3171,
      "Ġworth": 3172,
      "Ġcause": 3173,
      "ĠCounty": 3174,
      "Ġ2014": 3175,
      "IS": 3176,
      "ek": 3177,
      "gress": 3178,
      "Ġuser": 3179,
      "ĠPres": 3180,
      "ĠGeor": 3181,
      "Ġgrad": 3182,
      "Ġinj": 3183,
      "Ġspl": 3184,
      "Ġgoes": 3185,
      "Ġbirth": 3186,
      "Ġmass": 3187,
      "Ġparts": 3188,
      "Ġconditions": 3189,
      "Ġten": 3190,
      "Ġclick": 3191,
      "ĠEnglish": 3192,
      "istic": 3193,
      "Ġherself": 3194,
      "ĠAmerica": 3195,
      "ĠSarah": 3196,
      "Ġtight": 3197,
      "irit": 3198,
      "Ġdisplay": 3199,
      "hold": 3200,
      "anch": 3201,
      "Ġhole": 3202,
      "Ġrelated": 3203,
      "erve": 3204,
      "Ġinternational": 3205,
      "uals": 3206,
      "Ġbroken": 3207,
      "back": 3208,
      "Ġisn": 3209,
      "Ġtools": 3210,
      "Ġofficial": 3211,
      "Ġate": 3212,
      "Ġblocks": 3213,
      "Ġdeg": 3214,
      "Ġlat": 3215,
      "Ġitems": 3216,
      "Ġplaces": 3217,
      "Ġshop": 3218,
      "Ġlives": 3219,
      "Ġpublished": 3220,
      "Ġthemselves": 3221,
      "Ġexact": 3222,
      "Ġemb": 3223,
      "EN": 3224,
      "iving": 3225,
      "Ġarg": 3226,
      "Ġvill": 3227,
      "aign": 3228,
      "Ġcloud": 3229,
      "Ġlog": 3230,
      "Ġfile": 3231,
      "Ġpond": 3232,
      "Ġpotential": 3233,
      "atform": 3234,
      "aches": 3235,
      "Ġepisode": 3236,
      "atur": 3237,
      "now": 3238,
      "amb": 3239,
      "Ġgiving": 3240,
      "lier": 3241,
      "Ġusers": 3242,
      "ĠUK": 3243,
      "Al": 3244,
      "Ġbeach": 3245,
      "Ġanswer": 3246,
      "Ġimmedi": 3247,
      "Ġtrip": 3248,
      "Ġterms": 3249,
      "Ġsurprised": 3250,
      "Ġlesson": 3251,
      "ĠAir": 3252,
      "ĠDav": 3253,
      "ological": 3254,
      "ondon": 3255,
      "Ġvia": 3256,
      "Ġattract": 3257,
      "Ġgun": 3258,
      "ĠDa": 3259,
      "Ġmic": 3260,
      "inistr": 3261,
      "Ġleading": 3262,
      "uel": 3263,
      "Ġbug": 3264,
      "ĠAfric": 3265,
      "inary": 3266,
      "Ġhy": 3267,
      "ĠMon": 3268,
      "nes": 3269,
      "ĠAg": 3270,
      "Ġgold": 3271,
      "Ġdanger": 3272,
      "Ġmeeting": 3273,
      "icles": 3274,
      "ipe": 3275,
      "Ġappl": 3276,
      "eed": 3277,
      "Ġcollection": 3278,
      "Ġequipment": 3279,
      "ĠTV": 3280,
      "Ġmaterials": 3281,
      "Ġencour": 3282,
      "Ġyummy": 3283,
      "Ġfresh": 3284,
      "Ġplayer": 3285,
      "ration": 3286,
      "Ġarr": 3287,
      "Ġcam": 3288,
      "Ġimag": 3289,
      "Ġlikes": 3290,
      "ello": 3291,
      "Ġcomputer": 3292,
      "iation": 3293,
      "ubb": 3294,
      "Ġdisapp": 3295,
      "ushed": 3296,
      "Ġsched": 3297,
      "Ġdecision": 3298,
      "itation": 3299,
      "Ġperm": 3300,
      "ying": 3301,
      "Ġexcell": 3302,
      "Ġ2010": 3303,
      "Ch": 3304,
      "ĠHar": 3305,
      "Ġpolicy": 3306,
      "Ġtarget": 3307,
      "rench": 3308,
      "Ġmedical": 3309,
      "ky": 3310,
      "bruary": 3311,
      "Ġcup": 3312,
      "IT": 3313,
      "AL": 3314,
      "ĠGrand": 3315,
      "Ġfather": 3316,
      "Ġrecent": 3317,
      "IC": 3318,
      "ounced": 3319,
      "Ġ2013": 3320,
      "Ġhous": 3321,
      "ocol": 3322,
      "Ġstreng": 3323,
      "Ġride": 3324,
      "Ġble": 3325,
      "To": 3326,
      "Ġtick": 3327,
      "From": 3328,
      "Ġplans": 3329,
      "Ġdeveloped": 3330,
      "Ġmum": 3331,
      "ĠInc": 3332,
      "ucky": 3333,
      "16": 3334,
      "esc": 3335,
      "Ġhealthy": 3336,
      "On": 3337,
      "Ġgrowth": 3338,
      "Ġtail": 3339,
      "ĠPre": 3340,
      "Ġcouple": 3341,
      "Ġlab": 3342,
      "ĠMich": 3343,
      "ĠGener": 3344,
      "AC": 3345,
      "Ġ2019": 3346,
      "ĠArt": 3347,
      "itary": 3348,
      "Ġ196": 3349,
      "Ġtrou": 3350,
      "Ġship": 3351,
      "ĠRed": 3352,
      "Ġsens": 3353,
      "ĠCenter": 3354,
      "Ġeffic": 3355,
      "Ġgar": 3356,
      "Ġleaders": 3357,
      "Ġclosed": 3358,
      "Ġdrink": 3359,
      "Ġbutterf": 3360,
      "Ġcosts": 3361,
      "Ġlocation": 3362,
      "Ġ22": 3363,
      "Ġarm": 3364,
      "Ġsafety": 3365,
      "iable": 3366,
      "uth": 3367,
      "Ġnecessary": 3368,
      "aughter": 3369,
      "Wow": 3370,
      "ĠVal": 3371,
      "Ġaverage": 3372,
      "cription": 3373,
      "Ġchance": 3374,
      "Ġ2012": 3375,
      "hood": 3376,
      "ha": 3377,
      "put": 3378,
      "Ġ23": 3379,
      "Ġhat": 3380,
      "17": 3381,
      "ests": 3382,
      "Ġson": 3383,
      "Ġapply": 3384,
      "ĠSte": 3385,
      "Ġcountries": 3386,
      "Ġinvolved": 3387,
      "ĠFebruary": 3388,
      "ĠSer": 3389,
      "Ġfa": 3390,
      "Ġpen": 3391,
      "Ġallows": 3392,
      "net": 3393,
      "Ġhelps": 3394,
      "orrow": 3395,
      "Ġmoving": 3396,
      "mas": 3397,
      "ressed": 3398,
      "sequ": 3399,
      "ĠLondon": 3400,
      "Ġemer": 3401,
      "Ġdecor": 3402,
      "ooth": 3403,
      "ession": 3404,
      "Ġcenter": 3405,
      "Ġtypes": 3406,
      "Do": 3407,
      "iers": 3408,
      "Ġrecently": 3409,
      "Ġsolution": 3410,
      "Ġpromot": 3411,
      "??": 3412,
      "Ġability": 3413,
      "Ġshouted": 3414,
      "ĠDay": 3415,
      "Ġintegr": 3416,
      "Ġsou": 3417,
      "ashing": 3418,
      "Ġstorm": 3419,
      "imately": 3420,
      "ysis": 3421,
      "ĠII": 3422,
      "80": 3423,
      "Ġclub": 3424,
      "year": 3425,
      "Ġattention": 3426,
      "embered": 3427,
      "Ġrev": 3428,
      "Ġnote": 3429,
      "Ġarticle": 3430,
      "Ġnature": 3431,
      "Ġgift": 3432,
      "Ġvict": 3433,
      "Ġmarketing": 3434,
      "Ġplayers": 3435,
      "ĠInternational": 3436,
      "Ġconstruction": 3437,
      "Ġsea": 3438,
      "Ġseems": 3439,
      "--": 3440,
      "Ġaward": 3441,
      "Ġexcept": 3442,
      "aly": 3443,
      "Ġremembered": 3444,
      "Ġgas": 3445,
      "ĠÐ": 3446,
      "ĠTH": 3447,
      "Ġmouse": 3448,
      "Ġ2011": 3449,
      "Ġproviding": 3450,
      "ĠMus": 3451,
      "Ġimm": 3452,
      "Ġinflu": 3453,
      "imate": 3454,
      "Ġter": 3455,
      "ĠRo": 3456,
      "Ġeye": 3457,
      "Ġprevent": 3458,
      "Ġeffective": 3459,
      "14": 3460,
      "wood": 3461,
      "ĠCr": 3462,
      "Ġprograms": 3463,
      "Ġlic": 3464,
      "Ġdamage": 3465,
      "vey": 3466,
      "ĠIndia": 3467,
      "Ġcode": 3468,
      "Ġstudent": 3469,
      "Ġswing": 3470,
      "Ġjourney": 3471,
      "Ġcondition": 3472,
      "Ġalthough": 3473,
      "Ġpositive": 3474,
      "agement": 3475,
      "Ġlevels": 3476,
      "Ġmention": 3477,
      "Ġglass": 3478,
      "Ġcredit": 3479,
      "yr": 3480,
      "Ġcampaign": 3481,
      "Ġsource": 3482,
      "Ġjoy": 3483,
      "Ġsense": 3484,
      "Ġpred": 3485,
      "Ġdance": 3486,
      "My": 3487,
      "earch": 3488,
      "Ġbi": 3489,
      "ospital": 3490,
      "action": 3491,
      "Ġnorth": 3492,
      "ancy": 3493,
      "Ġpurchase": 3494,
      "Ġhistor": 3495,
      "iment": 3496,
      "Ġconsist": 3497,
      "Ġdoctor": 3498,
      "ĠMary": 3499,
      "Ġsuit": 3500,
      "25": 3501,
      "Ġindepend": 3502,
      "like": 3503,
      "ĠAc": 3504,
      "Ġwet": 3505,
      "Ġcried": 3506,
      "ĠBlack": 3507,
      "estern": 3508,
      "cle": 3509,
      "ĠOff": 3510,
      "uments": 3511,
      "ato": 3512,
      "Ġeating": 3513,
      "Ġonto": 3514,
      "Ġeight": 3515,
      "Ġbud": 3516,
      "hers": 3517,
      "ĠMaybe": 3518,
      "Ġbank": 3519,
      "RE": 3520,
      "Ġproduc": 3521,
      "Ġplatform": 3522,
      "Ġinvestig": 3523,
      "Ġtemper": 3524,
      "Ġenter": 3525,
      "Ġhighly": 3526,
      "ĠEar": 3527,
      "ĠSoc": 3528,
      "Ġdise": 3529,
      "ength": 3530,
      "Ġviol": 3531,
      "sing": 3532,
      "Ġsect": 3533,
      "Ġhill": 3534,
      "Ġsale": 3535,
      "Ġ...": 3536,
      "Ġspecies": 3537,
      "uted": 3538,
      "Ġrestaur": 3539,
      "Ġriver": 3540,
      "Ġlatest": 3541,
      "Ġpowerful": 3542,
      "Ġoffered": 3543,
      "Ġ#": 3544,
      "Ġfill": 3545,
      "Ġdrop": 3546,
      "Ġded": 3547,
      "oming": 3548,
      "Ġoption": 3549,
      "Ġprevious": 3550,
      "Ġcases": 3551,
      "Ġsongs": 3552,
      "ager": 3553,
      "inated": 3554,
      "asons": 3555,
      "Ġlimited": 3556,
      "Ġwoman": 3557,
      "Ġsister": 3558,
      "ĠEven": 3559,
      "Ġspend": 3560,
      "ĠJim": 3561,
      "isions": 3562,
      "Ġcanc": 3563,
      "atives": 3564,
      "izes": 3565,
      "acing": 3566,
      "ugg": 3567,
      "Ġmultiple": 3568,
      "Ġur": 3569,
      "ĠAssoci": 3570,
      "Ġreported": 3571,
      "Then": 3572,
      "idents": 3573,
      "ĠHouse": 3574,
      "Ġdepend": 3575,
      "Ġclothes": 3576,
      "rs": 3577,
      "ĠSim": 3578,
      "Ġpatients": 3579,
      "ford": 3580,
      "Ġpink": 3581,
      "ivity": 3582,
      "unk": 3583,
      "Ġsubm": 3584,
      "Ġforget": 3585,
      "overed": 3586,
      "Ġpatient": 3587,
      "lex": 3588,
      "Ġdescribed": 3589,
      "Ġreve": 3590,
      "ension": 3591,
      "Ġwelcome": 3592,
      "Ġwished": 3593,
      "Ġbunny": 3594,
      "Ġaw": 3595,
      "Ġstarting": 3596,
      "Ġblock": 3597,
      "Ġallowed": 3598,
      "Ġcorrect": 3599,
      "Ġlanguage": 3600,
      "Ġblood": 3601,
      "Ġbroad": 3602,
      "Ġshall": 3603,
      "Ġdetail": 3604,
      "Ġwaved": 3605,
      "Ġdaily": 3606,
      "onse": 3607,
      "Ġcommercial": 3608,
      "Ġstage": 3609,
      "Ġpool": 3610,
      "Ġsoc": 3611,
      "Ġsection": 3612,
      "ĠHere": 3613,
      "cil": 3614,
      "Ġlink": 3615,
      "Ġsuff": 3616,
      "Ġcourt": 3617,
      "Ġfine": 3618,
      "Ġspread": 3619,
      "Ġhappily": 3620,
      "bit": 3621,
      "13": 3622,
      "Ġdirectly": 3623,
      "Ġload": 3624,
      "ica": 3625,
      "Ġpeace": 3626,
      "ĠRuss": 3627,
      "Ġresources": 3628,
      "omp": 3629,
      "Ġexpert": 3630,
      "Ġextreme": 3631,
      "apes": 3632,
      "Ġqual": 3633,
      "Ġregion": 3634,
      "Ġreturned": 3635,
      "based": 3636,
      "ĠSan": 3637,
      "ption": 3638,
      "Ġcove": 3639,
      "Ġgrowing": 3640,
      "Ġconduct": 3641,
      "Ġlegal": 3642,
      "ses": 3643,
      "ĠBro": 3644,
      "uses": 3645,
      "Ġimages": 3646,
      "Ġprices": 3647,
      "Ġbike": 3648,
      "alt": 3649,
      "Ġcompletely": 3650,
      "Ġdistrib": 3651,
      "Ġinstruct": 3652,
      "Ġsecret": 3653,
      "Ġthrow": 3654,
      "Ġprem": 3655,
      "Ġcompleted": 3656,
      "lin": 3657,
      "Ġdeliver": 3658,
      "eddy": 3659,
      "oday": 3660,
      "Ġappoint": 3661,
      "Ġdaughter": 3662,
      "Ġfaster": 3663,
      "40": 3664,
      "Ġjud": 3665,
      "Ġcomplex": 3666,
      "just": 3667,
      "edding": 3668,
      "ĠAre": 3669,
      "Ġcomment": 3670,
      "useum": 3671,
      "Ġoccur": 3672,
      "ĠDuring": 3673,
      "Ġquiet": 3674,
      "Ġsmell": 3675,
      "Ġmouth": 3676,
      "Ġju": 3677,
      "wise": 3678,
      "Timmy": 3679,
      "uk": 3680,
      "Ġwild": 3681,
      "ĠFrench": 3682,
      "ements": 3683,
      "Ġachieve": 3684,
      "ĠDis": 3685,
      "Ġmeasure": 3686,
      "Ġking": 3687,
      "ears": 3688,
      "Ġpoor": 3689,
      "ĠNet": 3690,
      "Our": 3691,
      "Ġaccident": 3692,
      "enty": 3693,
      "Ġsouth": 3694,
      "ĠAut": 3695,
      "Ġmeas": 3696,
      "ications": 3697,
      "ucks": 3698,
      "ae": 3699,
      "Ġwouldn": 3700,
      "mark": 3701,
      "Ġrent": 3702,
      "Ġquar": 3703,
      "ĠMost": 3704,
      "Ġcookies": 3705,
      "ĠPat": 3706,
      "Ġtraditional": 3707,
      "aph": 3708,
      "ustr": 3709,
      "Ġhopped": 3710,
      "Ġcreating": 3711,
      "Ġsaying": 3712,
      "Ġgroups": 3713,
      "mp": 3714,
      "ilies": 3715,
      "Mommy": 3716,
      "band": 3717,
      "200": 3718,
      "Ġ2009": 3719,
      "Ġfunction": 3720,
      "Ġmovie": 3721,
      "ĠIr": 3722,
      "Ġchalleng": 3723,
      "het": 3724,
      "Ġpattern": 3725,
      "ĠAng": 3726,
      "ĠCalif": 3727,
      "Ġsud": 3728,
      "Ġmyself": 3729,
      "Ġsurround": 3730,
      "Ġconcept": 3731,
      "ĠThank": 3732,
      "Ġrights": 3733,
      "ĠPresident": 3734,
      "Ġ27": 3735,
      "Ġpolice": 3736,
      "Ġstayed": 3737,
      "aries": 3738,
      "Ġfully": 3739,
      "Ġstreet": 3740,
      "Ðµ": 3741,
      "Ġborn": 3742,
      "Ġbenefits": 3743,
      "Ġgets": 3744,
      "Ġbigger": 3745,
      "Ġcreative": 3746,
      "ropri": 3747,
      "Ġbutterfly": 3748,
      "Ġrequirements": 3749,
      "ipping": 3750,
      "Ġprec": 3751,
      "Ġexcellent": 3752,
      "Ġstuff": 3753,
      "Ġ26": 3754,
      "Ġexpected": 3755,
      "vision": 3756,
      "Ġmist": 3757,
      "Ġdied": 3758,
      "ĠEast": 3759,
      "Ġbrown": 3760,
      "off": 3761,
      "Ġsupply": 3762,
      "Be": 3763,
      "Ġcovered": 3764,
      "ĠMic": 3765,
      "Anna": 3766,
      "Ġglobal": 3767,
      "rest": 3768,
      "enge": 3769,
      "Ġstars": 3770,
      "Ġ28": 3771,
      "echan": 3772,
      "Ġdisp": 3773,
      "Ġthinking": 3774,
      "Ġletter": 3775,
      "Ġfurn": 3776,
      "Ġpolitical": 3777,
      "kend": 3778,
      "Ġkm": 3779,
      "Ġbowl": 3780,
      "Ġtitle": 3781,
      "ube": 3782,
      "Ġfunct": 3783,
      "ios": 3784,
      "tain": 3785,
      "With": 3786,
      "Ġdead": 3787,
      "Ġnumbers": 3788,
      "OS": 3789,
      "ald": 3790,
      "Ġisland": 3791,
      "ville": 3792,
      "ography": 3793,
      "ĠFirst": 3794,
      "iance": 3795,
      "hem": 3796,
      "Ġinnov": 3797,
      "Ġbutton": 3798,
      "Ġ60": 3799,
      "Ġphotos": 3800,
      "Ġfrog": 3801,
      "iture": 3802,
      "ulations": 3803,
      "AM": 3804,
      "Hello": 3805,
      "Ġattack": 3806,
      "ĠGreat": 3807,
      "Sara": 3808,
      "Ġ2008": 3809,
      "Ġchanged": 3810,
      "Ġscore": 3811,
      "Ġdigital": 3812,
      "ĠCour": 3813,
      "Ġheat": 3814,
      "ĠInt": 3815,
      "ĠLila": 3816,
      "Ġbottom": 3817,
      "Ġhour": 3818,
      "Ġdriver": 3819,
      "OT": 3820,
      "ket": 3821,
      "ĠHealth": 3822,
      "itely": 3823,
      "Ġmax": 3824,
      "uate": 3825,
      "Ġserved": 3826,
      "Ġpassed": 3827,
      "Ġsubs": 3828,
      "Ġfeels": 3829,
      "Ġdrug": 3830,
      "ences": 3831,
      "cean": 3832,
      "ĠDirect": 3833,
      "Ġdocument": 3834,
      "ecause": 3835,
      "ĠBus": 3836,
      "ornia": 3837,
      "elling": 3838,
      "Ġgoals": 3839,
      "Ġstrange": 3840,
      "Ġcas": 3841,
      "Ġmessage": 3842,
      "ibly": 3843,
      "bur": 3844,
      "Ġbought": 3845,
      "Ġimplement": 3846,
      "ĠRiver": 3847,
      "Ġver": 3848,
      "Ġestablished": 3849,
      "Ġtom": 3850,
      "ĠFin": 3851,
      "ĠOf": 3852,
      "Ġanimal": 3853,
      "Ġsites": 3854,
      "Ġnormal": 3855,
      "ocked": 3856,
      "body": 3857,
      "Ġorganization": 3858,
      "fully": 3859,
      "Ġdeli": 3860,
      "Ġhighest": 3861,
      "aker": 3862,
      "Ġflying": 3863,
      "Ġsus": 3864,
      "Ġcontain": 3865,
      "Ġprin": 3866,
      "Ġacqu": 3867,
      "ĠAustralia": 3868,
      "Ġreflect": 3869,
      "Ġnut": 3870,
      "'d": 3871,
      "Ġshoot": 3872,
      "Ġsolutions": 3873,
      "ĠInst": 3874,
      "Ġtend": 3875,
      "iate": 3876,
      "Ġsuppl": 3877,
      "Ð¾": 3878,
      "ĠHome": 3879,
      "ĠMag": 3880,
      "Why": 3881,
      "haps": 3882,
      "Ġplanning": 3883,
      "Ġsounds": 3884,
      "Ġfrequ": 3885,
      "za": 3886,
      "irty": 3887,
      "Ġwife": 3888,
      "Ġpressure": 3889,
      "Ġeventually": 3890,
      "rast": 3891,
      "Ġmobile": 3892,
      "Ġadvant": 3893,
      "ĠAlthough": 3894,
      "Ġindividuals": 3895,
      "ĠOut": 3896,
      "ĠStreet": 3897,
      "yn": 3898,
      "house": 3899,
      "Ġegg": 3900,
      "Ġpartners": 3901,
      "Ġmiles": 3902,
      "ĠEuropean": 3903,
      "Ġagre": 3904,
      "Ġincreasing": 3905,
      "Ġcyc": 3906,
      "ivil": 3907,
      "Ġstation": 3908,
      "OM": 3909,
      "ĠWhe": 3910,
      "ĠCalifornia": 3911,
      "Ġbreat": 3912,
      "Ġpaid": 3913,
      "Ġchurch": 3914,
      "All": 3915,
      "ffee": 3916,
      "Ġaltern": 3917,
      "Ġuses": 3918,
      "Ġmiddle": 3919,
      "Ġcomfortable": 3920,
      "ĠChina": 3921,
      "ĠCoun": 3922,
      "Ġsurface": 3923,
      "Ġcastle": 3924,
      "mon": 3925,
      "yond": 3926,
      "erved": 3927,
      "never": 3928,
      "Ġinterested": 3929,
      "Ġpow": 3930,
      "Ġ193": 3931,
      "Ġdifference": 3932,
      "nces": 3933,
      "Ġplaced": 3934,
      "Ġincreased": 3935,
      "Ġactivity": 3936,
      "ĠPaul": 3937,
      "Ġsituation": 3938,
      "Ġstructure": 3939,
      "Ġaware": 3940,
      "ĠSally": 3941,
      "orage": 3942,
      "Ġexerc": 3943,
      "Ġtalking": 3944,
      "Ġspark": 3945,
      "Ġeffort": 3946,
      "ĠMore": 3947,
      "Ġmaybe": 3948,
      "Ġadvice": 3949,
      "Ġspirit": 3950,
      "itect": 3951,
      "Ġuseful": 3952,
      "Ġbelong": 3953,
      "ĠIndian": 3954,
      "Ġyard": 3955,
      "Ġ195": 3956,
      "Ġproduced": 3957,
      "Ġdangerous": 3958,
      "Ġlargest": 3959,
      "uffy": 3960,
      "Ġparticularly": 3961,
      "oman": 3962,
      "Ġslowly": 3963,
      "Ġresponse": 3964,
      "arily": 3965,
      "ĠBenny": 3966,
      "Ġconsult": 3967,
      "Ġfat": 3968,
      "ĠAdd": 3969,
      "Ġlion": 3970,
      "Ġrelax": 3971,
      "//": 3972,
      "wor": 3973,
      "rial": 3974,
      "change": 3975,
      "ĠJen": 3976,
      "Ġexciting": 3977,
      "Ġannounced": 3978,
      "ĠChristmas": 3979,
      "ederal": 3980,
      "ords": 3981,
      "Ġlake": 3982,
      "âĢĿ.": 3983,
      "oogle": 3984,
      "ĠLa": 3985,
      "ĠIsland": 3986,
      "Ġweather": 3987,
      "Ġappeared": 3988,
      "Ġnovel": 3989,
      "ĠCompany": 3990,
      "Ġfirm": 3991,
      "Ġfamilies": 3992,
      "Ġeffects": 3993,
      "ĠGerman": 3994,
      "mm": 3995,
      "Ġadult": 3996,
      "Ġorganiz": 3997,
      "ado": 3998,
      "vest": 3999,
      "Ġunit": 4000,
      "Ġpulled": 4001,
      "Ġsort": 4002,
      "Ġchair": 4003,
      "ĠTrans": 4004,
      "arp": 4005,
      "Ġimmediately": 4006,
      "ipp": 4007,
      "Ġdemand": 4008,
      "Ġrob": 4009,
      "que": 4010,
      "ĠService": 4011,
      "Ġthreat": 4012,
      "ĠMet": 4013,
      "Ġunderstanding": 4014,
      "Ġult": 4015,
      "Ġevidence": 4016,
      "Oh": 4017,
      "inger": 4018,
      "nown": 4019,
      "Ġ2007": 4020,
      "ext": 4021,
      "Ġsharing": 4022,
      "oses": 4023,
      "Ġstock": 4024,
      "May": 4025,
      "roy": 4026,
      "Ġoverall": 4027,
      "arc": 4028,
      "ĠGold": 4029,
      "Ġclient": 4030,
      "Ġassess": 4031,
      "ĠMany": 4032,
      "Ġbroke": 4033,
      "Ġbusy": 4034,
      "Ġplants": 4035,
      "Ġserve": 4036,
      "Ġbeginning": 4037,
      "Ġnotice": 4038,
      "Ġearlier": 4039,
      "OU": 4040,
      "Ġmail": 4041,
      "Ġnearby": 4042,
      "ander": 4043,
      "Ġvehicle": 4044,
      "ĠPort": 4045,
      "Ġlunch": 4046,
      "Ġshel": 4047,
      "Ġanalysis": 4048,
      "ĠEngland": 4049,
      "Ġneck": 4050,
      "ĠGeneral": 4051,
      "gl": 4052,
      "Ġmeant": 4053,
      "ties": 4054,
      "ĠÂ£": 4055,
      "Ġcateg": 4056,
      "Ġexplained": 4057,
      "Ġconv": 4058,
      "Ġseemed": 4059,
      "ĠPal": 4060,
      "ĠJames": 4061,
      "Ġturns": 4062,
      "Ġresponsible": 4063,
      "Ġlength": 4064,
      "dd": 4065,
      "Ġvac": 4066,
      "Ġtransport": 4067,
      "Ġsmooth": 4068,
      "ashion": 4069,
      "Ġaim": 4070,
      "Ġpurpose": 4071,
      "Ġtransfer": 4072,
      "iders": 4073,
      "ĠBest": 4074,
      "Ġsurv": 4075,
      "://": 4076,
      "ĠMor": 4077,
      "ĠGroup": 4078,
      "Ġforce": 4079,
      "John": 4080,
      "Ġactive": 4081,
      "Ġassociated": 4082,
      "Ġing": 4083,
      "ĠLaw": 4084,
      "Ġweekend": 4085,
      "Ġscary": 4086,
      "Ġdevice": 4087,
      "Ġgrandma": 4088,
      "ĠWilliam": 4089,
      "ĠCanada": 4090,
      "ĠBook": 4091,
      "ĠJes": 4092,
      "stitute": 4093,
      "Ġstra": 4094,
      "Ġtrade": 4095,
      "Ġapprec": 4096,
      "aving": 4097,
      "Ġremain": 4098,
      "aled": 4099,
      "ĠCons": 4100,
      "unt": 4101,
      "Ġlines": 4102,
      "Ġexactly": 4103,
      "Ġinterview": 4104,
      "Ġhotel": 4105,
      "Ġposted": 4106,
      "ecutive": 4107,
      "ida": 4108,
      "Ġbeg": 4109,
      "Ġrare": 4110,
      "Ġhomes": 4111,
      "Ġframe": 4112,
      "igned": 4113,
      "Ġrelig": 4114,
      "Ġschools": 4115,
      "Ġowners": 4116,
      "ĠSund": 4117,
      "ĠWind": 4118,
      "Ġasks": 4119,
      "Ġavoid": 4120,
      "Ġculture": 4121,
      "Ġ--": 4122,
      "Ġpopulation": 4123,
      "ĠDepartment": 4124,
      "erry": 4125,
      "Ġphoto": 4126,
      "Ġphysical": 4127,
      "istry": 4128,
      "Ġentry": 4129,
      "iger": 4130,
      "Ġshown": 4131,
      "ĠCollege": 4132,
      "irr": 4133,
      "Ġstrateg": 4134,
      "Ġdemon": 4135,
      "Ġharm": 4136,
      "Ġnearly": 4137,
      "Ġhid": 4138,
      "Ġremind": 4139,
      "rant": 4140,
      "Ġadministr": 4141,
      "ĠMac": 4142,
      "Ġforgot": 4143,
      "Ġmilitary": 4144,
      "Ġbasket": 4145,
      "porary": 4146,
      "ĠCommun": 4147,
      "ST": 4148,
      "Ġconvers": 4149,
      "ael": 4150,
      "Ġhelpful": 4151,
      "Ġmeaning": 4152,
      "ĠHall": 4153,
      "Ġcharge": 4154,
      "ously": 4155,
      "abin": 4156,
      "Ġprofession": 4157,
      "Ġwaiting": 4158,
      "asc": 4159,
      "Ġwatching": 4160,
      "Ġmine": 4161,
      "ĠAnn": 4162,
      "Ġhide": 4163,
      "ĠBilly": 4164,
      "vant": 4165,
      "Ġesc": 4166,
      "Ġmis": 4167,
      "ulated": 4168,
      "Ġproced": 4169,
      "Ġcompared": 4170,
      "Ġapplications": 4171,
      "ĠTommy": 4172,
      "ancing": 4173,
      "Ġerr": 4174,
      "arant": 4175,
      "uing": 4176,
      "Ġeverywhere": 4177,
      "Ġhungry": 4178,
      "Ġtor": 4179,
      "osition": 4180,
      "Ġsmaller": 4181,
      "ĠAlso": 4182,
      "field": 4183,
      "His": 4184,
      "Ġnation": 4185,
      "ocolate": 4186,
      "Ġhorse": 4187,
      "Ġbatter": 4188,
      "Ġfab": 4189,
      "Ġfigure": 4190,
      "ĠWhite": 4191,
      "Ġpages": 4192,
      "hips": 4193,
      "ĠStr": 4194,
      "ĠPri": 4195,
      "ĠOther": 4196,
      "Ġserious": 4197,
      "Ġinstit": 4198,
      "Ġrules": 4199,
      "Ġindic": 4200,
      "Ġappropri": 4201,
      "Sam": 4202,
      "Ġprogress": 4203,
      "Ġbusinesses": 4204,
      "EC": 4205,
      "Ġtaste": 4206,
      "ocr": 4207,
      "Ġsatis": 4208,
      "cks": 4209,
      "Ġsitting": 4210,
      "ateful": 4211,
      "Ġholding": 4212,
      "Ġstrength": 4213,
      "Ġtag": 4214,
      "itar": 4215,
      "ĠDan": 4216,
      "Ġguide": 4217,
      "Ġseven": 4218,
      "Ġcards": 4219,
      "Ġflag": 4220,
      "Ġden": 4221,
      "ĠMiss": 4222,
      "ampions": 4223,
      "Ġlarger": 4224,
      "Ġveget": 4225,
      "Ġemployees": 4226,
      "Ġmetal": 4227,
      "Ġexperienced": 4228,
      "Ġeasier": 4229,
      "lim": 4230,
      "Ġbudget": 4231,
      "Ġahead": 4232,
      "yard": 4233,
      "Ġcharacters": 4234,
      "kin": 4235,
      "Ġbehav": 4236,
      "Ġmagic": 4237,
      "Ġgenerally": 4238,
      "aling": 4239,
      "Ġblank": 4240,
      "Ġcaused": 4241,
      "Ġaspect": 4242,
      "Ġremo": 4243,
      "ĠSch": 4244,
      "Ġpros": 4245,
      "apped": 4246,
      "ker": 4247,
      "Ġpray": 4248,
      "Ġcollege": 4249,
      "Ġmotor": 4250,
      "ĠMid": 4251,
      "hens": 4252,
      "Ġnames": 4253,
      "Ġoccas": 4254,
      "Ġlistened": 4255,
      "ban": 4256,
      "Ġbathroom": 4257,
      "ĠFriday": 4258,
      "Ġmechan": 4259,
      "ĠDiv": 4260,
      "umn": 4261,
      "box": 4262,
      "ĠInter": 4263,
      "ĠFree": 4264,
      "AP": 4265,
      "ĠPet": 4266,
      "ij": 4267,
      "Ġ29": 4268,
      "Ġexisting": 4269,
      "Ġannual": 4270,
      "Sh": 4271,
      "Ġcash": 4272,
      "Ġreduce": 4273,
      "Ġopportunities": 4274,
      "ĠWhy": 4275,
      "Ġow": 4276,
      "Ġopening": 4277,
      "Ġpromised": 4278,
      "ĠChristian": 4279,
      "osing": 4280,
      "undred": 4281,
      "Ġclimbed": 4282,
      "sych": 4283,
      "Ġstraight": 4284,
      "ĠDaisy": 4285,
      "enior": 4286,
      "irrel": 4287,
      "Ġfruit": 4288,
      "Ġpock": 4289,
      "bon": 4290,
      "Ġteams": 4291,
      "Ġadvert": 4292,
      "Ġcolour": 4293,
      "venue": 4294,
      "Ġdropped": 4295,
      "Ġoffering": 4296,
      "Ġ%": 4297,
      "ĠChurch": 4298,
      "Ġsetting": 4299,
      "idential": 4300,
      "ĠTechn": 4301,
      "Ġexpensive": 4302,
      "Ġrepair": 4303,
      "Now": 4304,
      "Ġthinks": 4305,
      "OK": 4306,
      "Ġtower": 4307,
      "rie": 4308,
      "Ġroof": 4309,
      "Ġcaught": 4310,
      "Ġfear": 4311,
      "ĠDavid": 4312,
      "Ġlibr": 4313,
      "Ġdecl": 4314,
      "Ġliter": 4315,
      "Ġfold": 4316,
      "Ġrespond": 4317,
      "Ġproduce": 4318,
      "Ð°": 4319,
      "Ġfem": 4320,
      "Ġmoral": 4321,
      "ĠPlay": 4322,
      "Ġbedroom": 4323,
      "Ġign": 4324,
      "ittee": 4325,
      "ĠConf": 4326,
      "Ġwedding": 4327,
      "Ġanc": 4328,
      "Ġbackground": 4329,
      "Ġdistance": 4330,
      "tr": 4331,
      "Ġfamous": 4332,
      "iest": 4333,
      "elly": 4334,
      "place": 4335,
      "Ġgrateful": 4336,
      "Ġdiag": 4337,
      "ĠAnt": 4338,
      "Ġdelivery": 4339,
      "Ġanaly": 4340,
      "Ġcorner": 4341,
      "Ġdouble": 4342,
      "Ġsmiles": 4343,
      "Ġarms": 4344,
      "ĠAN": 4345,
      "Ġfootball": 4346,
      "ĠWashing": 4347,
      "Ġmap": 4348,
      "Ġstates": 4349,
      "atively": 4350,
      "Ġjoined": 4351,
      "ĠTheir": 4352,
      "Ġenh": 4353,
      "Ġattend": 4354,
      "Ġshape": 4355,
      "outhern": 4356,
      "Ġwaited": 4357,
      "Ġbasis": 4358,
      "ico": 4359,
      "entle": 4360,
      "Ġemot": 4361,
      "Ġregarding": 4362,
      "Ġdefinitely": 4363,
      "22": 4364,
      "Ġinvestment": 4365,
      "Ġfinding": 4366,
      "Ġcandid": 4367,
      "Ġdemonstr": 4368,
      "Ġbeyond": 4369,
      "ĠUp": 4370,
      "Ġlack": 4371,
      "ĠCle": 4372,
      "eds": 4373,
      "Ġtask": 4374,
      "ĠAssociation": 4375,
      "iber": 4376,
      "Ġpuppy": 4377,
      "ĠProf": 4378,
      "Ġneighbor": 4379,
      "Ġhospital": 4380,
      "ertain": 4381,
      "Ġincred": 4382,
      "ET": 4383,
      "Ġdriving": 4384,
      "Ġshot": 4385,
      "roc": 4386,
      "Ġwoods": 4387,
      "oph": 4388,
      "Ġcamera": 4389,
      "ĠBrown": 4390,
      "Ġsteps": 4391,
      "Ġdisease": 4392,
      "ils": 4393,
      "anging": 4394,
      "Ġtun": 4395,
      "Ġprefer": 4396,
      "Ġdat": 4397,
      "Ġcapital": 4398,
      "icine": 4399,
      "Ġworried": 4400,
      "Ġcollabor": 4401,
      "ounce": 4402,
      "icing": 4403,
      "ometimes": 4404,
      "Ġessential": 4405,
      "nel": 4406,
      "oly": 4407,
      "Ġstuck": 4408,
      "Ġmer": 4409,
      "Ġwhose": 4410,
      "Ġprinc": 4411,
      "Ġcarried": 4412,
      "Ġdirector": 4413,
      "Ġperformed": 4414,
      "Ġreviews": 4415,
      "ĠSince": 4416,
      "Ġbuck": 4417,
      "olute": 4418,
      "ĠSystem": 4419,
      "pen": 4420,
      "Ġshoes": 4421,
      "Ġsquirrel": 4422,
      "Ġcart": 4423,
      "Ġduck": 4424,
      "Ġgreater": 4425,
      "Ġaffect": 4426,
      "ĠGovern": 4427,
      "ston": 4428,
      "Ġresist": 4429,
      "Ġcoffee": 4430,
      "pre": 4431,
      "illing": 4432,
      "Ġrich": 4433,
      "Ġbasic": 4434,
      "ĠRoad": 4435,
      "Ġring": 4436,
      "Ġvan": 4437,
      "Ġelements": 4438,
      "Ġbalance": 4439,
      "men": 4440,
      "Ġamazed": 4441,
      "aturday": 4442,
      "reek": 4443,
      "ĠGeorge": 4444,
      "ula": 4445,
      "ĠThanks": 4446,
      "icks": 4447,
      "porate": 4448,
      "orthern": 4449,
      "Ġlovely": 4450,
      "Please": 4451,
      "Ġsilly": 4452,
      "ams": 4453,
      "Ġsquare": 4454,
      "Ġnumer": 4455,
      "ĠFlor": 4456,
      "Ġleaving": 4457,
      "Ġsem": 4458,
      "odes": 4459,
      "che": 4460,
      "Ġund": 4461,
      "ishes": 4462,
      "Ġinternet": 4463,
      "Ġthous": 4464,
      "ĠJesus": 4465,
      "Ġsust": 4466,
      "rot": 4467,
      "ĠServices": 4468,
      "ĠRoy": 4469,
      "ounds": 4470,
      "ĠPeter": 4471,
      "Ġafford": 4472,
      "ronic": 4473,
      "Jack": 4474,
      "Ġprotection": 4475,
      "Ġrecorded": 4476,
      "ĠBusiness": 4477,
      "ĠHot": 4478,
      "Ġdegree": 4479,
      "Ġscient": 4480,
      "Ġbenefit": 4481,
      "Ġaf": 4482,
      "Ġstream": 4483,
      "Ġpayment": 4484,
      "ĠGreen": 4485,
      "Ġoutd": 4486,
      "Ġvillage": 4487,
      "ault": 4488,
      "Ġspring": 4489,
      "Ġstone": 4490,
      "Ġrates": 4491,
      "ĠSunday": 4492,
      "PS": 4493,
      "Ġthick": 4494,
      "ĠGet": 4495,
      "Ġagree": 4496,
      "Ġmagical": 4497,
      "Ġtherap": 4498,
      "formation": 4499,
      "Ġwinter": 4500,
      "Ġindependent": 4501,
      "amm": 4502,
      "Ġstorage": 4503,
      "Ġbirthday": 4504,
      "olic": 4505,
      "ĠRem": 4506,
      "order": 4507,
      "ĠWashington": 4508,
      "Ġrat": 4509,
      "ĠMount": 4510,
      "istics": 4511,
      "inate": 4512,
      "Ġban": 4513,
      "oices": 4514,
      "Ġchem": 4515,
      "Ġchallenge": 4516,
      "ris": 4517,
      "ĠSee": 4518,
      "Ġexhib": 4519,
      "omb": 4520,
      "ĠMill": 4521,
      "Ġreb": 4522,
      "Ġmanaged": 4523,
      "Ġeconomic": 4524,
      "Ġelectric": 4525,
      "24": 4526,
      "ari": 4527,
      "ID": 4528,
      "Ġscience": 4529,
      "Ġoperation": 4530,
      "Ġlose": 4531,
      "Ġtow": 4532,
      "Ġthanks": 4533,
      "Ġaccur": 4534,
      "ING": 4535,
      "ĠMod": 4536,
      "icip": 4537,
      "illa": 4538,
      "Ġadop": 4539,
      "Ġolder": 4540,
      "Ġfan": 4541,
      "bl": 4542,
      "Ġprote": 4543,
      "Ġmission": 4544,
      "Ġcompon": 4545,
      "Ġsecure": 4546,
      "Ġtruly": 4547,
      "ĠRober": 4548,
      "Ġflex": 4549,
      "Ġearth": 4550,
      "ĠArch": 4551,
      "itude": 4552,
      "imal": 4553,
      "estival": 4554,
      "azine": 4555,
      "fl": 4556,
      "Ġmilk": 4557,
      "acement": 4558,
      "Ġdiscovered": 4559,
      "ĠBill": 4560,
      "ĠDel": 4561,
      "ĠGoogle": 4562,
      "Ġ2006": 4563,
      "Ġdiscover": 4564,
      "Ġbul": 4565,
      "rey": 4566,
      "Ġvot": 4567,
      "Ġchart": 4568,
      "ĠSuper": 4569,
      "IL": 4570,
      "Ġdaddy": 4571,
      "Ġexpand": 4572,
      "Ġextremely": 4573,
      "Ġfurniture": 4574,
      "Ġstated": 4575,
      "Ġstudies": 4576,
      "wide": 4577,
      "Ġchocolate": 4578,
      "Ġdecide": 4579,
      "ĠInternet": 4580,
      "ett": 4581,
      "ĠAmy": 4582,
      "Ġwine": 4583,
      "Ġteeth": 4584,
      "down": 4585,
      "Ġcompetition": 4586,
      "Ã¡": 4587,
      "force": 4588,
      "BC": 4589,
      "acity": 4590,
      "Ġtiny": 4591,
      "Ġstress": 4592,
      "Ġseat": 4593,
      "ĠEach": 4594,
      "Ġtraffic": 4595,
      "ĠFace": 4596,
      "ray": 4597,
      "ĠTex": 4598,
      "Ġgentle": 4599,
      "ĠWell": 4600,
      "Ġcentral": 4601,
      "Hi": 4602,
      "using": 4603,
      "Ġhundred": 4604,
      "Ġcandy": 4605,
      "overy": 4606,
      "Ġfox": 4607,
      "ĠSaturday": 4608,
      "Ġopin": 4609,
      "arn": 4610,
      "Ġguarant": 4611,
      "aser": 4612,
      "Ġflo": 4613,
      "Ġcertainly": 4614,
      "ĠBel": 4615,
      "vis": 4616,
      "Ġcounter": 4617,
      "Ġpushed": 4618,
      "aves": 4619,
      "inese": 4620,
      "Ġdevices": 4621,
      "Cl": 4622,
      "Ġ80": 4623,
      "ĠCouncil": 4624,
      "fast": 4625,
      "Ġcritical": 4626,
      "Ġrefer": 4627,
      "MS": 4628,
      "Ġapprox": 4629,
      "ĠToday": 4630,
      "ĠMo": 4631,
      "23": 4632,
      "ĠRich": 4633,
      "ĠHist": 4634,
      "Ġweak": 4635,
      "Ġhandle": 4636,
      "Ġcleaning": 4637,
      "ĠGood": 4638,
      "ĠAccording": 4639,
      "Ġreasons": 4640,
      "ĠDesign": 4641,
      "Ġtemperature": 4642,
      "Ġ+": 4643,
      "Ġslight": 4644,
      "Maybe": 4645,
      "Ġadjust": 4646,
      "Ġseparate": 4647,
      "Ġselection": 4648,
      "Ġcolorful": 4649,
      "cy": 4650,
      "ĠBoard": 4651,
      "ĠMad": 4652,
      "Ġfixed": 4653,
      "ano": 4654,
      "Ġer": 4655,
      "Ġpush": 4656,
      "ategy": 4657,
      "Ġtechnical": 4658,
      "een": 4659,
      "ellig": 4660,
      "itter": 4661,
      "semb": 4662,
      "ĠJe": 4663,
      "Ġmanufacture": 4664,
      "Ġtim": 4665,
      "sey": 4666,
      "Ġeval": 4667,
      "Ġhus": 4668,
      "Ġcontains": 4669,
      "ped": 4670,
      "Ġcraft": 4671,
      "Ġgain": 4672,
      "rief": 4673,
      "icted": 4674,
      "Ġlisted": 4675,
      "Ġestablish": 4676,
      "Sp": 4677,
      "Ġbread": 4678,
      "Ġdesp": 4679,
      "atever": 4680,
      "Ġbiggest": 4681,
      "Ġreports": 4682,
      "ĠJapanese": 4683,
      "oms": 4684,
      "ading": 4685,
      "Ġestim": 4686,
      "Ġburn": 4687,
      "ĠSpr": 4688,
      "ologies": 4689,
      "Ġhonest": 4690,
      "Ġscen": 4691,
      "Ġoperations": 4692,
      "Ġarchitect": 4693,
      "Ġadvantage": 4694,
      "Ġcoo": 4695,
      "ĠCare": 4696,
      "raid": 4697,
      "EL": 4698,
      "Ġsick": 4699,
      "Ġappropriate": 4700,
      "Ġgraph": 4701,
      "Re": 4702,
      "ero": 4703,
      "met": 4704,
      "Ġcommunication": 4705,
      "han": 4706,
      "ĠIS": 4707,
      "Ġtrend": 4708,
      "ĠOver": 4709,
      "Ġidentify": 4710,
      "ented": 4711,
      "ening": 4712,
      "craft": 4713,
      "Ġprepared": 4714,
      "ĠCourt": 4715,
      "enance": 4716,
      "Ġideal": 4717,
      "ulate": 4718,
      "Ġbecoming": 4719,
      "Ġcommand": 4720,
      "itiz": 4721,
      "Ġtruth": 4722,
      "isa": 4723,
      "Ġprimary": 4724,
      "leg": 4725,
      "ĠBlue": 4726,
      "Ġestate": 4727,
      "Ġnoted": 4728,
      "Ġrepe": 4729,
      "Ġpair": 4730,
      "ĠTra": 4731,
      "Ġmountain": 4732,
      "Ġinteract": 4733,
      "ls": 4734,
      "ser": 4735,
      "ĠPhil": 4736,
      "Ġconnection": 4737,
      "Ġsuddenly": 4738,
      "Ġcheese": 4739,
      "Ġclin": 4740,
      "Ġingred": 4741,
      "70": 4742,
      "Ġpig": 4743,
      "ĠSur": 4744,
      "ĠIN": 4745,
      "unte": 4746,
      "Ġbeauty": 4747,
      "Ġcalc": 4748,
      "Ġutil": 4749,
      "ota": 4750,
      "antic": 4751,
      "ym": 4752,
      "Ġtrop": 4753,
      "Ġfavour": 4754,
      "EO": 4755,
      "vere": 4756,
      "ĠClub": 4757,
      "Ġcontroll": 4758,
      "Ġteddy": 4759,
      "Ġfant": 4760,
      "ĠSing": 4761,
      "urt": 4762,
      "Ġorange": 4763,
      "Ġmethods": 4764,
      "ender": 4765,
      "Ġshowing": 4766,
      "Ġrestr": 4767,
      "ĠJew": 4768,
      "ĠAny": 4769,
      "Ġended": 4770,
      "ago": 4771,
      "Ġtherefore": 4772,
      "Ġteaching": 4773,
      "Ġefficient": 4774,
      "omen": 4775,
      "ĠLove": 4776,
      "Ġseek": 4777,
      "Ġefforts": 4778,
      "Ġmulti": 4779,
      "atically": 4780,
      "Ġfaith": 4781,
      "ores": 4782,
      "ĠRock": 4783,
      "Ġpretend": 4784,
      "ĠRet": 4785,
      "iverse": 4786,
      "Ġincor": 4787,
      "Ġsinging": 4788,
      "Ġcalling": 4789,
      "Ġ?": 4790,
      "Ġdoub": 4791,
      "andy": 4792,
      "Ġpresented": 4793,
      "Ġinitial": 4794,
      "Ġquarter": 4795,
      "Ġlin": 4796,
      "Ġsports": 4797,
      "Ġchann": 4798,
      "apers": 4799,
      "ĠChinese": 4800,
      "Ġstepped": 4801,
      "ĠSol": 4802,
      "Ġchick": 4803,
      "ĠProd": 4804,
      "Ġbite": 4805,
      "Ġtrouble": 4806,
      "Ġtelevision": 4807,
      "99": 4808,
      "Max": 4809,
      "Ġmaster": 4810,
      "Ġsymb": 4811,
      "Ġbranch": 4812,
      "ĠEduc": 4813,
      "Ġpump": 4814,
      "Ġguid": 4815,
      "ixt": 4816,
      "Ġcells": 4817,
      "Ġevening": 4818,
      "Ġpartner": 4819,
      "Ġorganizations": 4820,
      "__": 4821,
      "Ġstret": 4822,
      "ĠEv": 4823,
      "inct": 4824,
      "Ġfashion": 4825,
      "Ġacadem": 4826,
      "known": 4827,
      "Ġshr": 4828,
      "iques": 4829,
      "Ġcheap": 4830,
      "Ġremove": 4831,
      "Ġdestroy": 4832,
      "Ġhoped": 4833,
      "hol": 4834,
      "ĠSl": 4835,
      "ki": 4836,
      "ĠProgram": 4837,
      "ĠPost": 4838,
      "Ġflav": 4839,
      "Ġmodels": 4840,
      "Ġcute": 4841,
      "Ġminute": 4842,
      "Ġrecords": 4843,
      "Ġwise": 4844,
      "Ġconstant": 4845,
      "Ġpocket": 4846,
      "Ġnav": 4847,
      "Ġmanage": 4848,
      "Ġaudience": 4849,
      "isl": 4850,
      "Ġwire": 4851,
      "Ġkiss": 4852,
      "Ġpal": 4853,
      "see": 4854,
      "Ġedge": 4855,
      "ĠTHE": 4856,
      "Is": 4857,
      "Just": 4858,
      "Ġvirt": 4859,
      "ĠHel": 4860,
      "Ġshell": 4861,
      "Ġissued": 4862,
      "Ġleader": 4863,
      "gency": 4864,
      "Ġmanager": 4865,
      "Ġsty": 4866,
      "Ġdolls": 4867,
      "Ġunits": 4868,
      "Ġ31": 4869,
      "eper": 4870,
      "Ġhtt": 4871,
      "ĠMal": 4872,
      "Ġfighting": 4873,
      "Ġabsolute": 4874,
      "Ġgrew": 4875,
      "While": 4876,
      "iven": 4877,
      "Ġscr": 4878,
      "Ġdetermine": 4879,
      "Ġhusband": 4880,
      "ocal": 4881,
      "Ġseeing": 4882,
      "Ġexploring": 4883,
      "Ġcoach": 4884,
      "Ġdedicated": 4885,
      "ĠQue": 4886,
      "orial": 4887,
      "igg": 4888,
      "Ġsteel": 4889,
      "Ġdrove": 4890,
      "Ġforever": 4891,
      "Ġpreviously": 4892,
      "Ġ500": 4893,
      "Ġwest": 4894,
      "ether": 4895,
      "ĠBay": 4896,
      "Ġselected": 4897,
      "Ġ]": 4898,
      "ella": 4899,
      "Ġhouses": 4900,
      "ĠMichael": 4901,
      "Okay": 4902,
      "yal": 4903,
      "Ġcabin": 4904,
      "Ġstarts": 4905,
      "Ġscale": 4906,
      "rian": 4907,
      "Ġmaintain": 4908,
      "Ġrestaurant": 4909,
      "Ġhar": 4910,
      "Ġdirty": 4911,
      "Ġspin": 4912,
      "Ġfans": 4913,
      "works": 4914,
      "CA": 4915,
      "Ġthrew": 4916,
      "Ġswitch": 4917,
      "ĠAustralian": 4918,
      "Ġprincess": 4919,
      "Ġincome": 4920,
      "Ġsources": 4921,
      "ĠAlex": 4922,
      "Ġremains": 4923,
      "aked": 4924,
      "Ġloves": 4925,
      "ĠAtl": 4926,
      "Ġstatus": 4927,
      "Ġrough": 4928,
      "Ġadvanced": 4929,
      "Ġbench": 4930,
      "uable": 4931,
      "Ġsch": 4932,
      "Ġwearing": 4933,
      "Ġnumerous": 4934,
      "Ġstanding": 4935,
      "Ġradio": 4936,
      "ushing": 4937,
      "Ġcoast": 4938,
      "ĠFlorida": 4939,
      "ucle": 4940,
      "Ġge": 4941,
      "Ġparties": 4942,
      "encies": 4943,
      "Ġbuildings": 4944,
      "ĠDevelop": 4945,
      "Ġarrang": 4946,
      "Ġmixed": 4947,
      "Ġstatement": 4948,
      "ĠTexas": 4949,
      "Ġbrow": 4950,
      "Ġ90": 4951,
      "Ġmovement": 4952,
      "Ġdetermined": 4953,
      "ĠOffice": 4954,
      "term": 4955,
      "Ġadding": 4956,
      "Ġcrying": 4957,
      "Ġmonster": 4958,
      "Ġasking": 4959,
      "apter": 4960,
      "Ġgrant": 4961,
      "ĠClass": 4962,
      "Ġì": 4963,
      "Ġfol": 4964,
      "la": 4965,
      "Ġanti": 4966,
      "ĠJill": 4967,
      "ervation": 4968,
      "Ġexperiences": 4969,
      "Ġboo": 4970,
      "Ġchallenges": 4971,
      "Finally": 4972,
      "rd": 4973,
      "Ġdish": 4974,
      "Ġwaste": 4975,
      "ĠRepublic": 4976,
      "Ġbattle": 4977,
      "ighter": 4978,
      "Ġartist": 4979,
      "Ġsolid": 4980,
      "ĠSmith": 4981,
      "aming": 4982,
      "ĠStar": 4983,
      "Ġdragon": 4984,
      "90": 4985,
      "ĠMond": 4986,
      "Ġmyster": 4987,
      "Ġbottle": 4988,
      "ĠMolly": 4989,
      "Ġforms": 4990,
      "ga": 4991,
      "ĠRob": 4992,
      "Ġrooms": 4993,
      "Ġagreement": 4994,
      "bour": 4995,
      "Ġbillion": 4996,
      "Ġpin": 4997,
      "Ġforces": 4998,
      "Ġkeeping": 4999,
      "Ġafraid": 5000,
      "Ġocean": 5001,
      "Ġlaws": 5002,
      "ĠAv": 5003,
      "Ġconven": 5004,
      "osure": 5005,
      "ĠFinally": 5006,
      "ĠFrance": 5007,
      "Ġfiles": 5008,
      "Ġswe": 5009,
      "uits": 5010,
      "Ġwings": 5011,
      "soft": 5012,
      "Ġcopy": 5013,
      "ĠNav": 5014,
      "ĠFacebook": 5015,
      "Ġtreasure": 5016,
      "US": 5017,
      "ĠLeague": 5018,
      "Ġplus": 5019,
      "Ġsharp": 5020,
      "ĠEll": 5021,
      "Ġ2005": 5022,
      "care": 5023,
      "Ġretail": 5024,
      "Ġtaught": 5025,
      "ĠMex": 5026,
      "Ġstrategy": 5027,
      "Ġfarmer": 5028,
      "Ex": 5029,
      "yer": 5030,
      "Ġrequires": 5031,
      "Ġupset": 5032,
      "Ġadventures": 5033,
      "Ġswimming": 5034,
      "Ġpill": 5035,
      "ĠBank": 5036,
      "new": 5037,
      "Ġcrew": 5038,
      "Ġwalls": 5039,
      "Ġdelight": 5040,
      "Ġfence": 5041,
      "ĠWater": 5042,
      "ĠDem": 5043,
      "Ġtheme": 5044,
      "Ġpromise": 5045,
      "Ġmentioned": 5046,
      "ĠSpec": 5047,
      "phone": 5048,
      "coming": 5049,
      "standing": 5050,
      "pective": 5051,
      "Ġcere": 5052,
      "istered": 5053,
      "Ġimpress": 5054,
      "Ġguess": 5055,
      "Ġshopping": 5056,
      "ads": 5057,
      "ortunately": 5058,
      "Â®": 5059,
      "ĠIT": 5060,
      "rael": 5061,
      "Ġdogs": 5062,
      "Ġtransl": 5063,
      "Ġclaims": 5064,
      "igation": 5065,
      "Ġexperts": 5066,
      "ien": 5067,
      "ona": 5068,
      "ĠTwo": 5069,
      "Ġnest": 5070,
      "Ġperhaps": 5071,
      "Ġcapacity": 5072,
      "Ġstandards": 5073,
      "Ġtells": 5074,
      "esome": 5075,
      "Ġtea": 5076,
      "Ġpolic": 5077,
      "Sure": 5078,
      "Ġthus": 5079,
      "Ġunf": 5080,
      "Ġpackage": 5081,
      "Ġadvance": 5082,
      "Ġeast": 5083,
      "ĠBer": 5084,
      "isation": 5085,
      "Ġrap": 5086,
      "Ph": 5087,
      "Ġdy": 5088,
      "Ġnap": 5089,
      "Ġworkers": 5090,
      "Ġballoon": 5091,
      "Ġholiday": 5092,
      "Ġfort": 5093,
      "Ġcoat": 5094,
      "Ġmajority": 5095,
      "ĠSal": 5096,
      "ĠWork": 5097,
      "Ġactual": 5098,
      "Ġexclus": 5099,
      "ĠAfrica": 5100,
      "nic": 5101,
      "ĠMusic": 5102,
      "Ġ190": 5103,
      "Ġlimit": 5104,
      "cing": 5105,
      "Ġtips": 5106,
      "athe": 5107,
      "urb": 5108,
      "ola": 5109,
      "NA": 5110,
      "ĠCong": 5111,
      "ĠLake": 5112,
      "ogether": 5113,
      "These": 5114,
      "Ġcommunities": 5115,
      "Ġknows": 5116,
      "ka": 5117,
      "Ġcivil": 5118,
      "ĠCommission": 5119,
      "Ġintroduced": 5120,
      "uated": 5121,
      "ĠSun": 5122,
      "anta": 5123,
      "Ġjun": 5124,
      "Ġbridge": 5125,
      "OL": 5126,
      "ius": 5127,
      "Ġtoward": 5128,
      "Ġaren": 5129,
      "Ġnom": 5130,
      "Ġscene": 5131,
      "ĠFore": 5132,
      "ĠSub": 5133,
      "umber": 5134,
      "Ġpresident": 5135,
      "ĠCam": 5136,
      "rif": 5137,
      "Ġsequ": 5138,
      "Ġkid": 5139,
      "Ġexercise": 5140,
      "Ġknowing": 5141,
      "Ġraised": 5142,
      "ĠBecause": 5143,
      "ĠWin": 5144,
      "Ġconcent": 5145,
      "28": 5146,
      "ĠElect": 5147,
      "Ġuniversity": 5148,
      "ĠAngel": 5149,
      "asy": 5150,
      "Ġresidents": 5151,
      "Ġcalls": 5152,
      "Ġjournal": 5153,
      "rupt": 5154,
      "Ġsail": 5155,
      "Ġapple": 5156,
      "tered": 5157,
      "Ġfactors": 5158,
      "Ġroute": 5159,
      "35": 5160,
      "Ġlad": 5161,
      "ĠLight": 5162,
      "Ġwindows": 5163,
      "Ġwheel": 5164,
      "well": 5165,
      "Ġplane": 5166,
      "part": 5167,
      "osh": 5168,
      "org": 5169,
      "adow": 5170,
      "Ġshapes": 5171,
      "Ġwhenever": 5172,
      "ship": 5173,
      "Ġcrow": 5174,
      "Ġjuice": 5175,
      "Ġmemory": 5176,
      "Ġsoup": 5177,
      "Of": 5178,
      "Ġlaun": 5179,
      "itors": 5180,
      "Ġ70": 5181,
      "Ġviews": 5182,
      "Ġlone": 5183,
      "Ġ35": 5184,
      "Ġtwins": 5185,
      "ĠPC": 5186,
      "Ġbecomes": 5187,
      "Every": 5188,
      "Ġmaximum": 5189,
      "ring": 5190,
      "emporary": 5191,
      "Ġproperties": 5192,
      "Ġmissed": 5193,
      "Ġplate": 5194,
      "Ġbrain": 5195,
      "Ġ2000": 5196,
      "Ġvalues": 5197,
      "Ġclasses": 5198,
      "ĠIts": 5199,
      "bow": 5200,
      "min": 5201,
      "Ġsuggested": 5202,
      "ĠSil": 5203,
      "ĠFound": 5204,
      "ĠInstitute": 5205,
      "itz": 5206,
      "ĠMart": 5207,
      "ĠWood": 5208,
      "Ġcritic": 5209,
      "pet": 5210,
      "Ġlucky": 5211,
      "Ġprepare": 5212,
      "Ġmostly": 5213,
      "ĠMarket": 5214,
      "Ġreliable": 5215,
      "Ġschedule": 5216,
      "Ġdiam": 5217,
      "udd": 5218,
      "verse": 5219,
      "ĠMil": 5220,
      "Ġrocks": 5221,
      "Ġdiet": 5222,
      "ĠSupp": 5223,
      "26": 5224,
      "gal": 5225,
      "ĠLook": 5226,
      "ĠPM": 5227,
      "lor": 5228,
      "Ġfacilities": 5229,
      "oe": 5230,
      "Ġpra": 5231,
      "ĠSometimes": 5232,
      "uled": 5233,
      "Ġdeveloping": 5234,
      "Ġblanket": 5235,
      "45": 5236,
      "Ġeleph": 5237,
      "ĠTor": 5238,
      "Ġsusp": 5239,
      "reak": 5240,
      "Ġkilled": 5241,
      "Here": 5242,
      "Ġvision": 5243,
      "Ġinstr": 5244,
      "Ġempt": 5245,
      "Ġcore": 5246,
      "Ġgiant": 5247,
      "Ġang": 5248,
      "Ġrub": 5249,
      "Ġdefe": 5250,
      "Ġpointed": 5251,
      "ĠResearch": 5252,
      "Ġselling": 5253,
      "Ġappearance": 5254,
      "Ġapart": 5255,
      "ĠDivision": 5256,
      "ĠVir": 5257,
      "Ġpurs": 5258,
      "Ġiniti": 5259,
      "Ġcancer": 5260,
      "Ġdespite": 5261,
      "ruct": 5262,
      "noon": 5263,
      "Ġder": 5264,
      "Ġwinning": 5265,
      "ION": 5266,
      "Ġmad": 5267,
      "gery": 5268,
      "Ġdisappoint": 5269,
      "Ġingredients": 5270,
      "Ġsymbol": 5271,
      "ss": 5272,
      "Ġdesigns": 5273,
      "Ġjobs": 5274,
      "Ġbackyard": 5275,
      "Ġguitar": 5276,
      "night": 5277,
      "Ġsession": 5278,
      "Ġscre": 5279,
      "Ġtesting": 5280,
      "Ġrelie": 5281,
      "Ġpassion": 5282,
      "Ġmarried": 5283,
      "Ġforeign": 5284,
      "Ġtypically": 5285,
      "Ġhero": 5286,
      "Ġsugar": 5287,
      "omas": 5288,
      "ĠBig": 5289,
      "ĠNews": 5290,
      "Ġpractices": 5291,
      "Ġmissing": 5292,
      "rical": 5293,
      "Ġbuying": 5294,
      "Ġorganized": 5295,
      "Ġfairy": 5296,
      "Ġprofessionals": 5297,
      "Ġwave": 5298,
      "ĠLou": 5299,
      "enses": 5300,
      "oured": 5301,
      "ĠCome": 5302,
      "aped": 5303,
      "ĠSum": 5304,
      "ifts": 5305,
      "RA": 5306,
      "Ġextensive": 5307,
      "Ġconnected": 5308,
      "rehens": 5309,
      "Ġnose": 5310,
      "Ġremained": 5311,
      "Ġsets": 5312,
      "Ġactions": 5313,
      "ĠOld": 5314,
      "Ġuns": 5315,
      "Ġupdate": 5316,
      "Ġchanging": 5317,
      "Ġmm": 5318,
      "ĠLife": 5319,
      "Ġjew": 5320,
      "ĠGermany": 5321,
      "ĠUnder": 5322,
      "Ġmaintenance": 5323,
      "Ġdirection": 5324,
      "Ġformed": 5325,
      "ĠMonday": 5326,
      "flow": 5327,
      "ĠĠ": 5328,
      "Ġhappens": 5329,
      "Ġapproximately": 5330,
      "uries": 5331,
      "Ġconference": 5332,
      "Ġlibrary": 5333,
      "Ġcommit": 5334,
      "Ġpresence": 5335,
      "uesday": 5336,
      "Ġpainting": 5337,
      "right": 5338,
      "Ġfuel": 5339,
      "ĠCamp": 5340,
      "atin": 5341,
      "Ġrail": 5342,
      "ĠMaster": 5343,
      "Ġreference": 5344,
      "espite": 5345,
      "Ġfocused": 5346,
      "ĠEmma": 5347,
      "Ġserver": 5348,
      "ĠIsrael": 5349,
      "Ġotherwise": 5350,
      "isp": 5351,
      "ibr": 5352,
      "Ġamb": 5353,
      "osen": 5354,
      "ĠEngine": 5355,
      "Ġlaunch": 5356,
      "ĠPeople": 5357,
      "Ġsociety": 5358,
      "Ġcoverage": 5359,
      "Ġoven": 5360,
      "Ġcourses": 5361,
      "arian": 5362,
      "ĠCarol": 5363,
      "Ġreality": 5364,
      "gen": 5365,
      "ria": 5366,
      "Ġaccepted": 5367,
      "Ġsear": 5368,
      "Ġspect": 5369,
      "anda": 5370,
      "Ġdiscount": 5371,
      "EM": 5372,
      "IP": 5373,
      "Ġexpress": 5374,
      "Ġdistr": 5375,
      "ception": 5376,
      "Ġgrown": 5377,
      "aded": 5378,
      "ucing": 5379,
      "ommod": 5380,
      "Ġvolunte": 5381,
      "Ġvisual": 5382,
      "21": 5383,
      "ĠHill": 5384,
      "Ġ2004": 5385,
      "Ġgather": 5386,
      "ĠMem": 5387,
      "Ġnotes": 5388,
      "Ġdrum": 5389,
      "Ġappears": 5390,
      "Ġsigned": 5391,
      "estic": 5392,
      "otted": 5393,
      "ĠTop": 5394,
      "arsh": 5395,
      "Ġfunds": 5396,
      "Ġbrief": 5397,
      "Ġtrail": 5398,
      "ursday": 5399,
      "onom": 5400,
      "Ġ45": 5401,
      "Ġgall": 5402,
      "bert": 5403,
      "Ġbreakfast": 5404,
      "entially": 5405,
      "Ġafternoon": 5406,
      "iency": 5407,
      "arge": 5408,
      "Ġcomments": 5409,
      "Ġspending": 5410,
      "Ġcompar": 5411,
      "Ġce": 5412,
      "Ġpsych": 5413,
      "Ġgrab": 5414,
      "75": 5415,
      "uty": 5416,
      "ivered": 5417,
      "88": 5418,
      "Ġwhom": 5419,
      "Ġcontinues": 5420,
      "ĠLittle": 5421,
      "Ġwriter": 5422,
      "Ġdump": 5423,
      "ĠSqu": 5424,
      "Ġshut": 5425,
      "Ġkick": 5426,
      "Ġoccup": 5427,
      "win": 5428,
      "Ġtalked": 5429,
      "95": 5430,
      "Ġ36": 5431,
      "ĠEnd": 5432,
      "fit": 5433,
      "Ġsang": 5434,
      "uration": 5435,
      "Ġloan": 5436,
      "Ġfees": 5437,
      "Ġdecisions": 5438,
      "ĠFil": 5439,
      "Ġintellig": 5440,
      "Ġflight": 5441,
      "Ġlights": 5442,
      "ĠExp": 5443,
      "Ġcombination": 5444,
      "Ġlonely": 5445,
      "Ġhaven": 5446,
      "Ġwealth": 5447,
      "ĠDown": 5448,
      "Ġfourth": 5449,
      "Ġiron": 5450,
      "Ġcitiz": 5451,
      "Ġanywhere": 5452,
      "Ġapplied": 5453,
      "âĢĿ,": 5454,
      "tion": 5455,
      "Ġguests": 5456,
      "Your": 5457,
      "Ġpil": 5458,
      "ĠBur": 5459,
      "Ġsenior": 5460,
      "rosoft": 5461,
      "Ġwash": 5462,
      "Ġflat": 5463,
      "appy": 5464,
      "Ġremoved": 5465,
      "Ġjar": 5466,
      "Ġdesk": 5467,
      "Ġcray": 5468,
      "Ġconfl": 5469,
      "100": 5470,
      "ait": 5471,
      "erences": 5472,
      "gn": 5473,
      "Ġhoney": 5474,
      "Ġbelieved": 5475,
      "Ġplenty": 5476,
      "ĠManagement": 5477,
      "Ġinspired": 5478,
      "fr": 5479,
      "ĠUSA": 5480,
      "Ġhom": 5481,
      "ĠBra": 5482,
      "akers": 5483,
      "ĠRoyal": 5484,
      "Ġdistrict": 5485,
      "Me": 5486,
      "usion": 5487,
      "Ġputting": 5488,
      "Ġearn": 5489,
      "Ġartists": 5490,
      "Ġeconomy": 5491,
      "iration": 5492,
      "ĠAC": 5493,
      "Ġvaluable": 5494,
      "Ġlegs": 5495,
      "Ġeth": 5496,
      "ĠUnion": 5497,
      "ĠArmy": 5498,
      "ĠAdm": 5499,
      "Ġfaces": 5500,
      "ĠForm": 5501,
      "Ġallowing": 5502,
      "AD": 5503,
      "ĠMont": 5504,
      "Ġpurple": 5505,
      "Ġfif": 5506,
      "Ġstring": 5507,
      "ĠEducation": 5508,
      "gu": 5509,
      "under": 5510,
      "ishing": 5511,
      "Ġclimate": 5512,
      "ĠRobert": 5513,
      "ipl": 5514,
      "look": 5515,
      "Ġoperating": 5516,
      "ompl": 5517,
      "Ġgeneration": 5518,
      "pm": 5519,
      "Ġdocuments": 5520,
      "ÃŃ": 5521,
      "friend": 5522,
      "ĠTuesday": 5523,
      "ĠSen": 5524,
      "Ġupgr": 5525,
      "inding": 5526,
      "ĠYear": 5527,
      "odies": 5528,
      "Ġhidden": 5529,
      "ĠTur": 5530,
      "resp": 5531,
      "ĠUN": 5532,
      "ĠWeb": 5533,
      "Ġsport": 5534,
      "Ġfee": 5535,
      "rees": 5536,
      "ashed": 5537,
      "Ġtechniques": 5538,
      "Ġthr": 5539,
      "alls": 5540,
      "ĠJer": 5541,
      "Ġcentre": 5542,
      "Ġfields": 5543,
      "Ġru": 5544,
      "Ġessay": 5545,
      "ĠHen": 5546,
      "Ġserving": 5547,
      "Ġpleased": 5548,
      "edy": 5549,
      "Ġbac": 5550,
      "Ġfederal": 5551,
      "ternal": 5552,
      "Ġmedium": 5553,
      "iliar": 5554,
      "Ġpuzz": 5555,
      "Ġwhatever": 5556,
      "ĠPower": 5557,
      "ĠPlan": 5558,
      "iences": 5559,
      "west": 5560,
      "Ġsilver": 5561,
      "Ġclassic": 5562,
      "\",": 5563,
      "Ġnoises": 5564,
      "Ġsupported": 5565,
      "Ġpolicies": 5566,
      "ĠAward": 5567,
      "ĠNor": 5568,
      "Ġslightly": 5569,
      "ĠAP": 5570,
      "Ġentered": 5571,
      "ĠCentral": 5572,
      "Ġlinks": 5573,
      "Ġthin": 5574,
      "Ġancient": 5575,
      "BS": 5576,
      "Ġvalid": 5577,
      "Ġ|": 5578,
      "ĠIre": 5579,
      "Ġbeat": 5580,
      "Ġrelevant": 5581,
      "ada": 5582,
      "ĠCur": 5583,
      "ĠOb": 5584,
      "Ġships": 5585,
      "aven": 5586,
      "ĠArab": 5587,
      "Ġmedicine": 5588,
      "Ġformat": 5589,
      "Ġimportance": 5590,
      "ĠMcC": 5591,
      "ĠBet": 5592,
      "ĠOpen": 5593,
      "Ġproposed": 5594,
      "ĠBoth": 5595,
      "ĠIns": 5596,
      "Ġdiss": 5597,
      "Ġrecip": 5598,
      "âĢ¢": 5599,
      "Ġvent": 5600,
      "Pro": 5601,
      "opping": 5602,
      "vin": 5603,
      "ĠWed": 5604,
      "Ġrecommended": 5605,
      "Ġtomorrow": 5606,
      "asks": 5607,
      "Ġvisitors": 5608,
      "ÂŃ": 5609,
      "Ġ!": 5610,
      "ĠDirector": 5611,
      "Ġthousands": 5612,
      "Ġinjury": 5613,
      "ĠPublic": 5614,
      "ĠVict": 5615,
      "Ġdiagn": 5616,
      "osis": 5617,
      "ĠThursday": 5618,
      "Ġobv": 5619,
      "Ġalternative": 5620,
      "Ġpun": 5621,
      "Ġintended": 5622,
      "Ġputs": 5623,
      "ĠAcadem": 5624,
      "Ġsustain": 5625,
      "laim": 5626,
      "Ġtransm": 5627,
      "27": 5628,
      "Ġcra": 5629,
      "ĠLike": 5630,
      "isted": 5631,
      "Ġtough": 5632,
      "Ġunderst": 5633,
      "Ġcombined": 5634,
      "top": 5635,
      "Ġterr": 5636,
      "Ġaccommod": 5637,
      "Ġempty": 5638,
      "Ġbat": 5639,
      "Ġdim": 5640,
      "Ġlux": 5641,
      "ĠRel": 5642,
      "ĠRoman": 5643,
      "Ġbrings": 5644,
      "Ġboys": 5645,
      "Ġswings": 5646,
      "lands": 5647,
      "ĠSecurity": 5648,
      "ĠCanadian": 5649,
      "izza": 5650,
      "Ġsalt": 5651,
      "ĠBuild": 5652,
      "Ġthread": 5653,
      "Ġrise": 5654,
      "Ġowned": 5655,
      "ĠDaddy": 5656,
      "ĠHol": 5657,
      "Ġexplain": 5658,
      "ĠFranc": 5659,
      "lying": 5660,
      "ĠFam": 5661,
      "icate": 5662,
      "ste": 5663,
      "Ġoriginally": 5664,
      "roid": 5665,
      "Ġshower": 5666,
      "Ġassistance": 5667,
      "Ġrapid": 5668,
      "Ġrule": 5669,
      "Ġremaining": 5670,
      "Ġsector": 5671,
      "ulf": 5672,
      "Ġimpl": 5673,
      "Ġstrugg": 5674,
      "ĠWestern": 5675,
      "Ġaccompl": 5676,
      "Ġlandsc": 5677,
      "Ġinfluence": 5678,
      "BA": 5679,
      "Ġreplaced": 5680,
      "):": 5681,
      "Ġbell": 5682,
      "free": 5683,
      "riage": 5684,
      "ĠChild": 5685,
      "ĠMuseum": 5686,
      "essions": 5687,
      "Ġunc": 5688,
      "Ġminor": 5689,
      "Ġfeatured": 5690,
      "ĠWindows": 5691,
      "aine": 5692,
      "Ġflood": 5693,
      "Ġelim": 5694,
      "rier": 5695,
      "ĠUs": 5696,
      "Ġprovider": 5697,
      "Ġvolume": 5698,
      "Ġincredible": 5699,
      "Ġschol": 5700,
      "ĠSa": 5701,
      "Ġcalm": 5702,
      "van": 5703,
      "ĠLord": 5704,
      "ĠOh": 5705,
      "ĠDu": 5706,
      "Ġcompetitive": 5707,
      "Ġrelationships": 5708,
      "Ġblow": 5709,
      "Ġdepartment": 5710,
      "ĠAmaz": 5711,
      "Ġbatt": 5712,
      "unning": 5713,
      "Ġbattery": 5714,
      "Good": 5715,
      "ĠJour": 5716,
      "Ġcloth": 5717,
      "ĠAfrican": 5718,
      "Ġnine": 5719,
      "ĠCup": 5720,
      "Ġholds": 5721,
      "Ġshirt": 5722,
      "uous": 5723,
      "zen": 5724,
      "Ġsaved": 5725,
      "Ġplastic": 5726,
      "Ġbucket": 5727,
      "Ġcheered": 5728,
      "Ġenvironmental": 5729,
      "ĠFrank": 5730,
      "à¤": 5731,
      "Ġton": 5732,
      "itness": 5733,
      "Ġclapped": 5734,
      "ĠProject": 5735,
      "igan": 5736,
      "IA": 5737,
      "IM": 5738,
      "etic": 5739,
      "!!!": 5740,
      "istrict": 5741,
      "Ġvideos": 5742,
      "Ġsle": 5743,
      "Ġlaunched": 5744,
      "Ġproceed": 5745,
      "ems": 5746,
      "emon": 5747,
      "Ġmeal": 5748,
      "ype": 5749,
      "Ġmort": 5750,
      "Ġcommission": 5751,
      "Ġnegative": 5752,
      "ĠNY": 5753,
      "ĠInside": 5754,
      "Ġlegisl": 5755,
      "Ġknee": 5756,
      "Ġvehicles": 5757,
      "nesday": 5758,
      "ĠVirgin": 5759,
      "Ġsides": 5760,
      "ĠCard": 5761,
      "Ġrecipe": 5762,
      "Ġstudio": 5763,
      "Ġnucle": 5764,
      "nament": 5765,
      "Ġfabric": 5766,
      "Ġappeal": 5767,
      "ĠVol": 5768,
      "Ġkinds": 5769,
      "Ġordered": 5770,
      "ĠGovernment": 5771,
      "Ġminimum": 5772,
      "Ġir": 5773,
      "Ġwondered": 5774,
      "Ġmenu": 5775,
      "Ġhyd": 5776,
      "pa": 5777,
      "inations": 5778,
      "ĠSk": 5779,
      "ĠCap": 5780,
      "Ġflu": 5781,
      "abilities": 5782,
      "ĠFollow": 5783,
      "Ġplanned": 5784,
      "29": 5785,
      "ĠItal": 5786,
      "Ġmanner": 5787,
      "ĠChic": 5788,
      "ĠWho": 5789,
      "ĠSpan": 5790,
      "Ġshipping": 5791,
      "Ġmud": 5792,
      "Ġreduced": 5793,
      "ĠEnter": 5794,
      "ĠEarth": 5795,
      "ĠDevelopment": 5796,
      "oma": 5797,
      "Ġinternal": 5798,
      "ĠIreland": 5799,
      "LE": 5800,
      "Ġlabor": 5801,
      "Thanks": 5802,
      "ricane": 5803,
      "Ġjoint": 5804,
      "Ġvictory": 5805,
      "ĠTime": 5806,
      "Ġhappening": 5807,
      "ĠFluffy": 5808,
      "Ġopinion": 5809,
      "IV": 5810,
      "atre": 5811,
      "ĠMel": 5812,
      "ĠMatt": 5813,
      "Ġquant": 5814,
      "Ġteachers": 5815,
      "Ġtickets": 5816,
      "ï¿": 5817,
      "ĠSus": 5818,
      "RO": 5819,
      "Ġcities": 5820,
      "Ġft": 5821,
      "shine": 5822,
      ".)": 5823,
      "abase": 5824,
      "ĠScience": 5825,
      "Ġmagazine": 5826,
      "Ġfunctional": 5827,
      "ï¿½": 5828,
      "ĠHy": 5829,
      "ĠWil": 5830,
      "Ġscript": 5831,
      "Ġacid": 5832,
      "Ġfrag": 5833,
      "ette": 5834,
      "ĠMake": 5835,
      "Ġsuc": 5836,
      "Ġleadership": 5837,
      "Ġconflict": 5838,
      "Ġcooking": 5839,
      "Ġforced": 5840,
      "ĠSoon": 5841,
      "Ġpanel": 5842,
      "mosp": 5843,
      "Ġreplace": 5844,
      "Ġproperly": 5845,
      "Ġlabel": 5846,
      "500": 5847,
      "hus": 5848,
      "Ġdoors": 5849,
      "Ġ2003": 5850,
      "Ġguest": 5851,
      "Ġfemale": 5852,
      "Ġwoke": 5853,
      "lder": 5854,
      "while": 5855,
      "Are": 5856,
      "ĠOl": 5857,
      "Ġelement": 5858,
      "Ġsatisf": 5859,
      "Ġinstalled": 5860,
      "berg": 5861,
      "ĠTimes": 5862,
      "ĠScott": 5863,
      "Ġacademic": 5864,
      "Ġbee": 5865,
      "Ġjack": 5866,
      "Ġchicken": 5867,
      "word": 5868,
      "ĠEr": 5869,
      "Ġrot": 5870,
      "Ġvisited": 5871,
      "Ġsubsequ": 5872,
      "Ġresponsibility": 5873,
      "Ġcategory": 5874,
      "Ġemergency": 5875,
      "Un": 5876,
      "oop": 5877,
      "Ġplays": 5878,
      "Ġleads": 5879,
      "Ġindustrial": 5880,
      "Ġspecifically": 5881,
      "Ġdrawing": 5882,
      "Ġinstallation": 5883,
      "eline": 5884,
      "ĠDistrict": 5885,
      "ĠMike": 5886,
      "ĠFire": 5887,
      "Ġspons": 5888,
      "ĠWall": 5889,
      "Ġsumm": 5890,
      "Ġbreath": 5891,
      "Ġdelivered": 5892,
      "Ġaircraft": 5893,
      "Ġsearching": 5894,
      "Ġbound": 5895,
      "Ġcozy": 5896,
      "oration": 5897,
      "ĠST": 5898,
      "Ġcomprehens": 5899,
      "Ġhugs": 5900,
      "Ġpossibly": 5901,
      "Ġsurgery": 5902,
      "Ġprocesses": 5903,
      "water": 5904,
      "ĠLos": 5905,
      "ĠOF": 5906,
      "Ġexchange": 5907,
      "ita": 5908,
      "Ġchose": 5909,
      "Ġlocations": 5910,
      "ĠBack": 5911,
      "Ġunus": 5912,
      "Ġsandw": 5913,
      "Ġconcerns": 5914,
      "ĠAtt": 5915,
      "ĠValley": 5916,
      "ustrated": 5917,
      "33": 5918,
      "obe": 5919,
      "Ġbon": 5920,
      "Ġped": 5921,
      "Ġgarage": 5922,
      "osa": 5923,
      "Ġcultural": 5924,
      "ĠJimmy": 5925,
      "cel": 5926,
      "ini": 5927,
      "onds": 5928,
      "Ġvegetables": 5929,
      "ya": 5930,
      "Ġaccidentally": 5931,
      "orney": 5932,
      "ĠTown": 5933,
      "Ġclearly": 5934,
      "Ġelephant": 5935,
      "eless": 5936,
      "Ġwhist": 5937,
      "Ġsunny": 5938,
      "aughty": 5939,
      "Ġfavourite": 5940,
      "Ġdial": 5941,
      "Ġwilling": 5942,
      "Ġclosely": 5943,
      "Tr": 5944,
      "PA": 5945,
      "rance": 5946,
      "Ġtub": 5947,
      "ena": 5948,
      "Ġansw": 5949,
      "Ġ300": 5950,
      "Ġworksh": 5951,
      "ampionship": 5952,
      "Ġstood": 5953,
      "ogue": 5954,
      "ĠÃ": 5955,
      "ĠTour": 5956,
      "Ġrecording": 5957,
      "going": 5958,
      "Ġmirr": 5959,
      "ĠWord": 5960,
      "ĠThomas": 5961,
      "Ġinvited": 5962,
      "tle": 5963,
      "ester": 5964,
      "ĠProfess": 5965,
      "Ġprotein": 5966,
      "ĠWednesday": 5967,
      "orses": 5968,
      "Ġinterior": 5969,
      "Ġvote": 5970,
      "Ġtrial": 5971,
      "prise": 5972,
      "ĠClick": 5973,
      "lam": 5974,
      "oons": 5975,
      "Ġdirt": 5976,
      "ĠWal": 5977,
      "ĠRose": 5978,
      "Ġgreatest": 5979,
      "IG": 5980,
      "ĠTem": 5981,
      "Ġweap": 5982,
      "ĠDef": 5983,
      "ĠGal": 5984,
      "ĠMass": 5985,
      "Ġcreation": 5986,
      "Ġtasty": 5987,
      "ĠMot": 5988,
      "Ġshook": 5989,
      "Ġawesome": 5990,
      "Ġoccasion": 5991,
      "Ġowl": 5992,
      "Ġsight": 5993,
      "Ġune": 5994,
      "Ġpromote": 5995,
      "ĠSociety": 5996,
      "Ġbehavior": 5997,
      "inating": 5998,
      "iser": 5999,
      "Ġunless": 6000,
      "Ġaudio": 6001,
      "Ġoutdoor": 6002,
      "Ġimproved": 6003,
      "Ġawarded": 6004,
      "Ġaid": 6005,
      "Ġdie": 6006,
      "Ġobt": 6007,
      "ĠPhot": 6008,
      "Ġaspects": 6009,
      "Ġimpressive": 6010,
      "erg": 6011,
      "aturing": 6012,
      "Ġfailed": 6013,
      "ifications": 6014,
      "hetic": 6015,
      "Ġsurvey": 6016,
      "By": 6017,
      "Ġment": 6018,
      "ups": 6019,
      "Ġfacility": 6020,
      "Ġraise": 6021,
      "hab": 6022,
      "Ġsauce": 6023,
      "Ġdecre": 6024,
      "Ġpic": 6025,
      "Ġagency": 6026,
      "Ġletters": 6027,
      "istration": 6028,
      "Ġdetailed": 6029,
      "eler": 6030,
      "Ġchoices": 6031,
      "Ġcoin": 6032,
      "Ġvisiting": 6033,
      "Ġcave": 6034,
      "ĠLong": 6035,
      "ĠPac": 6036,
      "Ġending": 6037,
      "ĠParty": 6038,
      "mpt": 6039,
      "Ġtank": 6040,
      "Ġcorn": 6041,
      "ĠCat": 6042,
      "Ġconfig": 6043,
      "Ġswam": 6044,
      "Ġinstance": 6045,
      "Ġcorporate": 6046,
      "gment": 6047,
      "Ġcraw": 6048,
      "Ġyouth": 6049,
      "Ġtouched": 6050,
      "Ġtransform": 6051,
      "Ġanx": 6052,
      "arrow": 6053,
      "Ġlock": 6054,
      "Ġprocessing": 6055,
      "Ġrevealed": 6056,
      "ĠHam": 6057,
      "Ġsav": 6058,
      "Ġrow": 6059,
      "Ġchemical": 6060,
      "rm": 6061,
      "Ġguard": 6062,
      "Ġposts": 6063,
      "ifying": 6064,
      "Ġreligious": 6065,
      "ĠDri": 6066,
      "ĠColor": 6067,
      "ĠVictor": 6068,
      "Ġunderstood": 6069,
      "Ġ*": 6070,
      "ĠCall": 6071,
      "antly": 6072,
      "Ġspray": 6073,
      "Ġdynam": 6074,
      "LC": 6075,
      "ĠHave": 6076,
      "ĠRad": 6077,
      "ĠGame": 6078,
      "itionally": 6079,
      "Ġseconds": 6080,
      "reedom": 6081,
      "igr": 6082,
      "Ġoptim": 6083,
      "Ġrolled": 6084,
      "ĠÑ": 6085,
      "actions": 6086,
      "Ġmonkey": 6087,
      "Ġeggs": 6088,
      "isher": 6089,
      "Ġnaughty": 6090,
      "Ġchosen": 6091,
      "itty": 6092,
      "Ġpractical": 6093,
      "Ġsucceed": 6094,
      "orter": 6095,
      "assed": 6096,
      "azz": 6097,
      "Ġath": 6098,
      "icket": 6099,
      "Ġatmosp": 6100,
      "Ġmarkets": 6101,
      "ittens": 6102,
      "Ġresol": 6103,
      "Ġthoughts": 6104,
      "Ġdepart": 6105,
      "Ġapproved": 6106,
      "Ġdiscussion": 6107,
      "ias": 6108,
      "Ġstores": 6109,
      "ĠCheck": 6110,
      "amin": 6111,
      "ĠLear": 6112,
      "ĠInf": 6113,
      "Ġ2001": 6114,
      "ĠTrump": 6115,
      "Ġbringing": 6116,
      "www": 6117,
      "iano": 6118,
      "Ġflash": 6119,
      "ĠBefore": 6120,
      "ĠApple": 6121,
      "illiant": 6122,
      "Ġmuseum": 6123,
      "ĠRev": 6124,
      "Ġorders": 6125,
      "ev": 6126,
      "point": 6127,
      "Ġchain": 6128,
      "Ġtries": 6129,
      "Ġconfused": 6130,
      "Ġobtain": 6131,
      "Ġupdated": 6132,
      "ĠWhere": 6133,
      "Ġnewsp": 6134,
      "Hey": 6135,
      "Ġsizes": 6136,
      "Ġperfectly": 6137,
      "how": 6138,
      "ĠâĢ¦": 6139,
      "Ġox": 6140,
      "ĠFur": 6141,
      "Ġlaughing": 6142,
      "SC": 6143,
      "issions": 6144,
      "DA": 6145,
      "Ġresc": 6146,
      "Ġofficials": 6147,
      "Mia": 6148,
      "stances": 6149,
      "berry": 6150,
      "Ġplanet": 6151,
      "Ġcommitted": 6152,
      "Ġsurf": 6153,
      "Ġphotograph": 6154,
      "Ġpurposes": 6155,
      "Ġadults": 6156,
      "icon": 6157,
      "Ġsevere": 6158,
      "Ġrug": 6159,
      "Ġarticles": 6160,
      "ĠMama": 6161,
      "ĠKingdom": 6162,
      "Ġhistorical": 6163,
      "orge": 6164,
      "Ġcontext": 6165,
      "Ġelev": 6166,
      "Ġencourage": 6167,
      "pret": 6168,
      "Ġgra": 6169,
      "ares": 6170,
      "Ġmusical": 6171,
      "Ġsuitable": 6172,
      "Ġris": 6173,
      "uman": 6174,
      "Ġtwice": 6175,
      "Ġlighting": 6176,
      "Ġpurchased": 6177,
      "ĠChicago": 6178,
      "iter": 6179,
      "Ġaffected": 6180,
      "Not": 6181,
      "ĠCustom": 6182,
      "Ġsigns": 6183,
      "ĠGrandma": 6184,
      "Ġfantastic": 6185,
      "Ġdining": 6186,
      "lymp": 6187,
      "ĠPress": 6188,
      "umes": 6189,
      "Ġagent": 6190,
      "Ġcampus": 6191,
      "Ġrecognized": 6192,
      "ĠHaw": 6193,
      "Ġcovers": 6194,
      "Ġfailure": 6195,
      "road": 6196,
      "Ġwebsites": 6197,
      "Ġcow": 6198,
      "ĠUse": 6199,
      "Ġcouch": 6200,
      "what": 6201,
      "Well": 6202,
      "Ġbone": 6203,
      "Ġfamiliar": 6204,
      "ĠInstead": 6205,
      "Ġwww": 6206,
      "ulty": 6207,
      "uations": 6208,
      "ĠFred": 6209,
      "Ġrelieved": 6210,
      "Ġsurrounding": 6211,
      "Ġregistered": 6212,
      "Ġfunctions": 6213,
      "Ġadvertising": 6214,
      "ĠAM": 6215,
      "Ġkill": 6216,
      "Ġprofit": 6217,
      "ENT": 6218,
      "Ġstrategies": 6219,
      "Ġelection": 6220,
      "elines": 6221,
      "Ġscored": 6222,
      "Ġmotiv": 6223,
      "OW": 6224,
      "Once": 6225,
      "hi": 6226,
      "ĠDet": 6227,
      "anges": 6228,
      "ĠAnother": 6229,
      "Ġpatterns": 6230,
      "Ġappreciate": 6231,
      "ĠSpanish": 6232,
      "UR": 6233,
      "Ġabsolutely": 6234,
      "hent": 6235,
      "Ġgently": 6236,
      "Ġhttp": 6237,
      "liam": 6238,
      "aks": 6239,
      "Ġrid": 6240,
      "Ġsupporting": 6241,
      "Ġtelling": 6242,
      "Ġborrow": 6243,
      "imp": 6244,
      "ĠDou": 6245,
      "Ġcontemporary": 6246,
      "Ġsunshine": 6247,
      "orough": 6248,
      "ĠMa": 6249,
      "ĠIndust": 6250,
      "Ġfunding": 6251,
      "Ġbags": 6252,
      "Ġsupplies": 6253,
      "ĠCath": 6254,
      "rastruct": 6255,
      "Ġven": 6256,
      "Ġmeat": 6257,
      "Ġbegins": 6258,
      "Ġpizza": 6259,
      "state": 6260,
      "ĠLo": 6261,
      "Ġreput": 6262,
      "Ġemp": 6263,
      "Ġaffordable": 6264,
      "ĠTre": 6265,
      "Ġmole": 6266,
      "ĠBeach": 6267,
      "ĠStep": 6268,
      "ĠVe": 6269,
      "Ġphil": 6270,
      "Ġsupposed": 6271,
      "SA": 6272,
      "ĠSocial": 6273,
      "ĠConference": 6274,
      "umin": 6275,
      "Ġvictim": 6276,
      "Ġsac": 6277,
      "Ġsheet": 6278,
      "Ġcookie": 6279,
      "Ġcircum": 6280,
      "aws": 6281,
      "col": 6282,
      "eding": 6283,
      "osal": 6284,
      "Ġourselves": 6285,
      "Ġcelebrate": 6286,
      "Ġblend": 6287,
      "Ġcomponents": 6288,
      "ilit": 6289,
      "Ġcoord": 6290,
      "ensity": 6291,
      "Ġenthus": 6292,
      "Ġreplacement": 6293,
      "Ġdebt": 6294,
      "Ġsearched": 6295,
      "Later": 6296,
      "Ġtape": 6297,
      "Ġclever": 6298,
      "65": 6299,
      "Ġâ": 6300,
      "rete": 6301,
      "ownt": 6302,
      "ĠâĢĻ": 6303,
      "isco": 6304,
      "Ġhighlight": 6305,
      "Ġlicense": 6306,
      "Ġerror": 6307,
      "no": 6308,
      "Ġtooth": 6309,
      "Ġrelatively": 6310,
      "mail": 6311,
      "orable": 6312,
      "Ġeager": 6313,
      "Ġgoods": 6314,
      "Ġ2002": 6315,
      "Ġautomatically": 6316,
      "Ġrose": 6317,
      "Ġquot": 6318,
      "Ġchest": 6319,
      "ala": 6320,
      "ĠBas": 6321,
      "outs": 6322,
      "Ġzoom": 6323,
      "ĠCommittee": 6324,
      "Ġestimated": 6325,
      "Ġtropical": 6326,
      "Con": 6327,
      "ĠOlymp": 6328,
      "ĠDom": 6329,
      "Ġrope": 6330,
      "Ġgirls": 6331,
      "Ã³": 6332,
      "Ġgate": 6333,
      "istan": 6334,
      "ictions": 6335,
      "Ġfinger": 6336,
      "ĠOper": 6337,
      "ĠProt": 6338,
      "Ġconcert": 6339,
      "fa": 6340,
      "Ġlamp": 6341,
      "ĠReview": 6342,
      "Ġfilms": 6343,
      "Ġdistinct": 6344,
      "Ġofficer": 6345,
      "athered": 6346,
      "ĠBow": 6347,
      "Ġtechnologies": 6348,
      "44": 6349,
      "Ġ400": 6350,
      "ĠSecond": 6351,
      "Ġsignificantly": 6352,
      "Ġguns": 6353,
      "ĠSeries": 6354,
      "Ġkite": 6355,
      "Ġtopic": 6356,
      "Ġclouds": 6357,
      "Ġexpertise": 6358,
      "Ġflexible": 6359,
      "CC": 6360,
      "Where": 6361,
      "Ġemph": 6362,
      "Ġregister": 6363,
      "Ġmoon": 6364,
      "Ġdistribution": 6365,
      "burg": 6366,
      "liament": 6367,
      "Ġrainbow": 6368,
      "lusion": 6369,
      "Ġneighborhood": 6370,
      "ĠJournal": 6371,
      "ĠPan": 6372,
      "Ġdelay": 6373,
      "ĠItalian": 6374,
      "ĠConn": 6375,
      "fall": 6376,
      "Ġec": 6377,
      "ĠFind": 6378,
      "ĠTeam": 6379,
      "vention": 6380,
      "Ġextended": 6381,
      "ĠCharl": 6382,
      "Ġplug": 6383,
      "sembly": 6384,
      "osy": 6385,
      "Ġhousehold": 6386,
      "Ġconducted": 6387,
      "ĠTO": 6388,
      "Ġforth": 6389,
      "Ġconfir": 6390,
      "ĠHistory": 6391,
      "Ġspotted": 6392,
      "Ġdirected": 6393,
      "Ġhall": 6394,
      "Ġhello": 6395,
      "Ð¸": 6396,
      "Ġhang": 6397,
      "ĠIll": 6398,
      "ĠMach": 6399,
      "Ġdepending": 6400,
      "Ġbelief": 6401,
      "ĠMexico": 6402,
      "ĠFoundation": 6403,
      "Ġpacked": 6404,
      "Ġupper": 6405,
      "ĠThrough": 6406,
      "Ġextract": 6407,
      "Ġcharges": 6408,
      "ĠAmericans": 6409,
      "Ġenhance": 6410,
      "astern": 6411,
      "Ġscar": 6412,
      "Ġapples": 6413,
      "Ġguys": 6414,
      "Ġcollected": 6415,
      "ĠSpecial": 6416,
      "Ġcrowd": 6417,
      "Ġairport": 6418,
      "Ġsnack": 6419,
      "Ġwid": 6420,
      "Ġunknown": 6421,
      "Ġcru": 6422,
      "ario": 6423,
      "Ġconsequ": 6424,
      "struction": 6425,
      "cher": 6426,
      "Ġsne": 6427,
      "Ġunable": 6428,
      "Ġadministration": 6429,
      "Ġdu": 6430,
      "Ġconver": 6431,
      "osite": 6432,
      "ĠOnline": 6433,
      "Ġofficers": 6434,
      "Ġinnovative": 6435,
      "Ġcomprehensive": 6436,
      "ĠCro": 6437,
      "Ġleaf": 6438,
      "oga": 6439,
      "wered": 6440,
      "Ġcoc": 6441,
      "Ġconfidence": 6442,
      "Ġwithd": 6443,
      "Ġsaving": 6444,
      "Ġsoil": 6445,
      "Ġearned": 6446,
      "Ġsolar": 6447,
      "ĠParis": 6448,
      "icians": 6449,
      "Ġdefined": 6450,
      "Ġannounce": 6451,
      "Ġcarrying": 6452,
      "Ġtasks": 6453,
      "ĠCD": 6454,
      "ĠJul": 6455,
      "Ġlicens": 6456,
      "Ġnor": 6457,
      "ĠVis": 6458,
      "enced": 6459,
      "Ġsympt": 6460,
      "Ġfollows": 6461,
      "Ġtherapy": 6462,
      "ĠAcademy": 6463,
      "Ġdesire": 6464,
      "Ġobl": 6465,
      "Ġpositions": 6466,
      "Ġcutting": 6467,
      "Some": 6468,
      "Ġsole": 6469,
      "Ġunivers": 6470,
      "Ġinterests": 6471,
      "Ġpile": 6472,
      "Ġmoments": 6473,
      "Ġfeather": 6474,
      "Ġmeasures": 6475,
      "Ġsam": 6476,
      "Ġspaces": 6477,
      "Ġeducational": 6478,
      "fficient": 6479,
      "Ġdecades": 6480,
      "Ġportion": 6481,
      "life": 6482,
      "Ġcontest": 6483,
      "Ġcheer": 6484,
      "....": 6485,
      "Ġsimpl": 6486,
      "Ġeffectively": 6487,
      "Ġprotected": 6488,
      "Ġaccounts": 6489,
      "Ġidentified": 6490,
      "Ġchoo": 6491,
      "Ġ33": 6492,
      "Ġgray": 6493,
      "Ġwra": 6494,
      "Ġcolle": 6495,
      "Ġterrit": 6496,
      "Ġunusual": 6497,
      "Ġpad": 6498,
      "Ġvir": 6499,
      "Ġdraft": 6500,
      "lets": 6501,
      "Ġboxes": 6502,
      "Ġ1990": 6503,
      "Ġcrown": 6504,
      "Ġfro": 6505,
      "ĠDen": 6506,
      "luded": 6507,
      "Ad": 6508,
      "Ġhearing": 6509,
      "ĠKore": 6510,
      "Ġsolve": 6511,
      "Ġmur": 6512,
      "Ġdefense": 6513,
      "Ġsuccessfully": 6514,
      "iveness": 6515,
      "Ġash": 6516,
      "lock": 6517,
      "ĠOnly": 6518,
      "Ġrealize": 6519,
      "Ġfeedback": 6520,
      "ĠMiddle": 6521,
      "stal": 6522,
      "ament": 6523,
      "Ġinches": 6524,
      "However": 6525,
      "rastructure": 6526,
      "Ġsmiling": 6527,
      "rawn": 6528,
      "Ġremote": 6529,
      "Ġfrequently": 6530,
      "Ġtie": 6531,
      "Ġgod": 6532,
      "Ġtracks": 6533,
      "DF": 6534,
      "arks": 6535,
      "lace": 6536,
      "ĠShow": 6537,
      "Ġdust": 6538,
      "endar": 6539,
      "Ġoutput": 6540,
      "Ġembarr": 6541,
      "fol": 6542,
      "Ġsample": 6543,
      "urse": 6544,
      "ĠDespite": 6545,
      "Ġbush": 6546,
      "Ġsubstant": 6547,
      "ĠSea": 6548,
      "ĠCommunity": 6549,
      "Ġauto": 6550,
      "Ġpaying": 6551,
      "ĠNetwork": 6552,
      "Ġrobot": 6553,
      "iated": 6554,
      "ĠCross": 6555,
      "ĠOR": 6556,
      "Ġsex": 6557,
      "Ġvary": 6558,
      "rum": 6559,
      "ĠJose": 6560,
      "Ġprepar": 6561,
      "Ġbrush": 6562,
      "Ġemployee": 6563,
      "Ġdreams": 6564,
      "then": 6565,
      "ua": 6566,
      "Ġmelt": 6567,
      "Ġnurs": 6568,
      "Ġentertain": 6569,
      "Ġtreated": 6570,
      "Ġgolf": 6571,
      "Ġcauses": 6572,
      "Ġticket": 6573,
      "eder": 6574,
      "Ġresolution": 6575,
      "Ġ75": 6576,
      "ĠLouis": 6577,
      "Ġprocedure": 6578,
      "ĠAngeles": 6579,
      "Ġwag": 6580,
      "Ġperman": 6581,
      "Ġpoll": 6582,
      "Ġmistake": 6583,
      "Ġaccomp": 6584,
      "oral": 6585,
      "otton": 6586,
      "plate": 6587,
      "ĠInformation": 6588,
      "ĠBritain": 6589,
      "Ar": 6590,
      "uts": 6591,
      "Ġcharm": 6592,
      "ĠHenry": 6593,
      "Ġmel": 6594,
      "Ġliqu": 6595,
      "Ġdatabase": 6596,
      "ĠAsia": 6597,
      "isters": 6598,
      "Ġcontrast": 6599,
      "Ġwarrant": 6600,
      "Ġescape": 6601,
      "Ġheight": 6602,
      "48": 6603,
      "heast": 6604,
      "Ġlift": 6605,
      "Ġ32": 6606,
      "ĠScot": 6607,
      "ĠCentre": 6608,
      "Ġcasino": 6609,
      "ĠProduct": 6610,
      "greg": 6611,
      "Ġsouthern": 6612,
      "Ġdeals": 6613,
      "Ġbrilliant": 6614,
      "ĠArts": 6615,
      "Ġstronger": 6616,
      "Ġtotally": 6617,
      "ĠLee": 6618,
      "Ġenable": 6619,
      "Ġpoly": 6620,
      "Ġphase": 6621,
      "Ġsplit": 6622,
      "ĠFort": 6623,
      "Ġresearc": 6624,
      "td": 6625,
      "ĠData": 6626,
      "Ġseeking": 6627,
      "Ġcitizens": 6628,
      "bu": 6629,
      "Ġhorses": 6630,
      "Ġchief": 6631,
      "Ġpref": 6632,
      "Ġauth": 6633,
      "ĠPay": 6634,
      "Ġ48": 6635,
      "Ġwinner": 6636,
      "eries": 6637,
      "Ġmental": 6638,
      "ĠTweet": 6639,
      "Ġreward": 6640,
      "ĠID": 6641,
      "ĠCP": 6642,
      "Ġtests": 6643,
      "ĠCongress": 6644,
      "Ġemphas": 6645,
      "gar": 6646,
      "gers": 6647,
      "ĠVirginia": 6648,
      "Ġgrace": 6649,
      "ĠWhether": 6650,
      "Ġcable": 6651,
      "Ġspoke": 6652,
      "Ġhousing": 6653,
      "Ġappointed": 6654,
      "IR": 6655,
      "host": 6656,
      "mes": 6657,
      "ĠLin": 6658,
      "Ġdrew": 6659,
      "Ġinch": 6660,
      "ocated": 6661,
      "Ġbrands": 6662,
      "Ġenjoying": 6663,
      "poration": 6664,
      "but": 6665,
      "Ġtent": 6666,
      "ĠTri": 6667,
      "ĠWay": 6668,
      "ĠDi": 6669,
      "Ġeditor": 6670,
      "Ġdepos": 6671,
      "ĠRussian": 6672,
      "ĠPacific": 6673,
      "Ġmatt": 6674,
      "ĠTake": 6675,
      "ache": 6676,
      "Ġresource": 6677,
      "Ġpremium": 6678,
      "luding": 6679,
      "which": 6680,
      "oston": 6681,
      "Ġshares": 6682,
      "Ġclassroom": 6683,
      "Ġmessages": 6684,
      "Ġfalls": 6685,
      "Ġnegot": 6686,
      "Ġinstructions": 6687,
      "Ġhundreds": 6688,
      "Ġpure": 6689,
      "Ġasleep": 6690,
      "Ġenem": 6691,
      "Bob": 6692,
      "iples": 6693,
      "yan": 6694,
      "ĠBoy": 6695,
      "Ġdrivers": 6696,
      "Ġzoo": 6697,
      "Ġexamples": 6698,
      "Ġdoubt": 6699,
      "oh": 6700,
      "Ġinitially": 6701,
      "Ġchannel": 6702,
      "elled": 6703,
      "Ġreaders": 6704,
      "ycle": 6705,
      "Ġstretch": 6706,
      "ĠAmazon": 6707,
      "Ġveter": 6708,
      "Ġfishing": 6709,
      "Ġregularly": 6710,
      "Ġrein": 6711,
      "hand": 6712,
      "Ã¼": 6713,
      "Ġnone": 6714,
      "ĠCert": 6715,
      "Ġloyal": 6716,
      "ibilities": 6717,
      "Ġremov": 6718,
      "ĠMen": 6719,
      "estyle": 6720,
      "ĠKim": 6721,
      "rim": 6722,
      "achel": 6723,
      "Ġstir": 6724,
      "ĠLisa": 6725,
      "Ġends": 6726,
      "iot": 6727,
      "anna": 6728,
      "quar": 6729,
      "ulture": 6730,
      "Ġdollars": 6731,
      "Ġmatches": 6732,
      "Ġimagine": 6733,
      "cked": 6734,
      "Ġelder": 6735,
      "Ġfeaturing": 6736,
      "with": 6737,
      "Ġinvolve": 6738,
      "ĠMedical": 6739,
      "Ġconversation": 6740,
      "Ġrevenue": 6741,
      "rome": 6742,
      "Ġcompr": 6743,
      "ĠRussia": 6744,
      "Ġtro": 6745,
      "oles": 6746,
      "Ġcrim": 6747,
      "Ġlistening": 6748,
      "Ġengineering": 6749,
      "ĠSecret": 6750,
      "Ġprofile": 6751,
      "Ġbugs": 6752,
      "Ġrestaurants": 6753,
      "Ġhyp": 6754,
      "ĠVer": 6755,
      "Ġmode": 6756,
      "Ġfactor": 6757,
      "Ġidentity": 6758,
      "ĠGall": 6759,
      "Ġarrest": 6760,
      "asp": 6761,
      "Ġnerv": 6762,
      "Ġspoon": 6763,
      "ĠMinister": 6764,
      "Ġpeaceful": 6765,
      "Ġducks": 6766,
      "Ġyours": 6767,
      "Ġimpressed": 6768,
      "Ġrefused": 6769,
      "Ġconcerned": 6770,
      "32": 6771,
      "CH": 6772,
      "Ġpapers": 6773,
      "ĠLand": 6774,
      "Ġshore": 6775,
      "ĠYes": 6776,
      "Ġexpans": 6777,
      "Ġinfo": 6778,
      "Ġclaimed": 6779,
      "ĠIrish": 6780,
      "erves": 6781,
      "Ġrenew": 6782,
      "Ġapparent": 6783,
      "ĠSammy": 6784,
      "Ġspeaking": 6785,
      "Ġmainly": 6786,
      "Ġmachines": 6787,
      "Ġconsumers": 6788,
      "bled": 6789,
      "Ġmale": 6790,
      "Ġsmoke": 6791,
      "Who": 6792,
      "Ġresulting": 6793,
      "ĠZeal": 6794,
      "ĠFamily": 6795,
      "Ġanswers": 6796,
      "Come": 6797,
      "ns": 6798,
      "Ġham": 6799,
      "Ġattractive": 6800,
      "Ġreferred": 6801,
      "Ġwaves": 6802,
      "idy": 6803,
      "Ġstones": 6804,
      "ossible": 6805,
      "Ġassign": 6806,
      "Ġparticipate": 6807,
      "ixture": 6808,
      "SS": 6809,
      "ician": 6810,
      "ĠGen": 6811,
      "Ġcorresp": 6812,
      "ĠMichigan": 6813,
      "Ġtrick": 6814,
      "Ġanswered": 6815,
      "ĠId": 6816,
      "Ġusual": 6817,
      "weight": 6818,
      "ĠStand": 6819,
      "Ġconsidering": 6820,
      "ĠMrs": 6821,
      "Ġpainted": 6822,
      "Ġboss": 6823,
      "ikes": 6824,
      "Ġtables": 6825,
      "eck": 6826,
      "Ġattrib": 6827,
      "Ġinterpret": 6828,
      "Ġgathered": 6829,
      "ĠSong": 6830,
      "Ġrear": 6831,
      "roph": 6832,
      "Ġelectronic": 6833,
      "Ġachieved": 6834,
      "Ġcycle": 6835,
      "Ġconstit": 6836,
      "ĠAND": 6837,
      "Ġguarantee": 6838,
      "ĠPerson": 6839,
      "Ġpregn": 6840,
      "Ġdescription": 6841,
      "Ġproviders": 6842,
      "Ġreceiving": 6843,
      "pack": 6844,
      "Ġtut": 6845,
      "ora": 6846,
      "ensions": 6847,
      "Ġmanufacturing": 6848,
      "Ġturning": 6849,
      "Ġspiritual": 6850,
      "Ġperspective": 6851,
      "Ġdisappointed": 6852,
      "Ġjewel": 6853,
      "Ġdanced": 6854,
      "Ġdancing": 6855,
      "Ġinput": 6856,
      "Ġexecutive": 6857,
      "Ġgrade": 6858,
      "Ġtheory": 6859,
      "Ġ38": 6860,
      "Ġvari": 6861,
      "Ġprocedures": 6862,
      "Ġnative": 6863,
      "ĠBre": 6864,
      "assion": 6865,
      "Ġedition": 6866,
      "ĠMicrosoft": 6867,
      "andon": 6868,
      "andom": 6869,
      "Ġmonthly": 6870,
      "Ġvend": 6871,
      "ĠJackson": 6872,
      "Ġmarked": 6873,
      "Ġtreats": 6874,
      "ĠCarolina": 6875,
      "rell": 6876,
      "elcome": 6877,
      "Ġrelief": 6878,
      "cohol": 6879,
      "ĠZealand": 6880,
      "Ġalle": 6881,
      "gypt": 6882,
      "rid": 6883,
      "Ġrac": 6884,
      "alled": 6885,
      "Ġflour": 6886,
      "Ġcrack": 6887,
      "Ġtypical": 6888,
      "inent": 6889,
      "Ġagencies": 6890,
      "uggle": 6891,
      "Ġlanded": 6892,
      "Ġdebut": 6893,
      "atoes": 6894,
      "Ġladder": 6895,
      "iro": 6896,
      "ĠCast": 6897,
      "osaur": 6898,
      "Ġfruits": 6899,
      "ĠKeep": 6900,
      "Ġpir": 6901,
      "Ġlosing": 6902,
      "ĠLim": 6903,
      "Ġattended": 6904,
      "Ġdetect": 6905,
      "Ġshining": 6906,
      "Ġobserved": 6907,
      "Ġdegrees": 6908,
      "hew": 6909,
      "Ġsessions": 6910,
      "utch": 6911,
      "ĠHa": 6912,
      "Ġexcess": 6913,
      "Ġmonit": 6914,
      "Ġgenerous": 6915,
      "Ġtrading": 6916,
      "AF": 6917,
      "Ġë": 6918,
      "Ġattached": 6919,
      "Ġprompt": 6920,
      "nings": 6921,
      "Ġbodies": 6922,
      "Ġglow": 6923,
      "adium": 6924,
      "ĠEU": 6925,
      "ĠAL": 6926,
      "TA": 6927,
      "Ġnorthern": 6928,
      "Ġeveryday": 6929,
      "ĠCas": 6930,
      "ĠLeg": 6931,
      "Ġappointment": 6932,
      "can": 6933,
      "iat": 6934,
      "Ġleather": 6935,
      "Ġballs": 6936,
      "ĠTechnology": 6937,
      "Ġmirror": 6938,
      "Le": 6939,
      "Ġlemon": 6940,
      "ĠNov": 6941,
      "Ġrecon": 6942,
      "Ġfoods": 6943,
      "Ġdamaged": 6944,
      "mond": 6945,
      "icial": 6946,
      "ĠTogether": 6947,
      "Ġauthority": 6948,
      "Ġrental": 6949,
      "Ġconcentr": 6950,
      "Ġwore": 6951,
      "alle": 6952,
      "Ġreject": 6953,
      "ĠDemocr": 6954,
      "know": 6955,
      "Ġol": 6956,
      "Ġmut": 6957,
      "Ġsyn": 6958,
      "Ġ1999": 6959,
      "rig": 6960,
      "Ġpup": 6961,
      "stone": 6962,
      "Ġroot": 6963,
      "Ġbelt": 6964,
      "Ġshooting": 6965,
      "Ġshelf": 6966,
      "Ġinstitutions": 6967,
      "Ġfancy": 6968,
      "ava": 6969,
      "Ġregional": 6970,
      "equ": 6971,
      "Ã¶": 6972,
      "Ġtons": 6973,
      "Ġrice": 6974,
      "ĠDig": 6975,
      "ĠGames": 6976,
      "Ġknife": 6977,
      "ĠGeorg": 6978,
      "Ġboost": 6979,
      "36": 6980,
      "IF": 6981,
      "aren": 6982,
      "52": 6983,
      "TC": 6984,
      "zer": 6985,
      "Ġwitness": 6986,
      "ĠMer": 6987,
      "ĠLu": 6988,
      "Ġmatters": 6989,
      "ĠBoston": 6990,
      "Ġequal": 6991,
      "Ġ1980": 6992,
      "Ġparticipants": 6993,
      "Ġmovies": 6994,
      "Ġwand": 6995,
      "Ġcolumn": 6996,
      "Ġpassing": 6997,
      "Ġdestination": 6998,
      "Ġemotional": 6999,
      "bles": 7000,
      "ÑĤ": 7001,
      "ĠFood": 7002,
      "Ġadapt": 7003,
      "Ġmoves": 7004,
      "Ġhumans": 7005,
      "Ġscheduled": 7006,
      "Ġluck": 7007,
      "avell": 7008,
      "ĠCharles": 7009,
      "Ġcooper": 7010,
      "Ġpit": 7011,
      "ĠTable": 7012,
      "Ġexcit": 7013,
      "ĠReal": 7014,
      "Ġpilot": 7015,
      "Ġclock": 7016,
      "ĠExper": 7017,
      "77": 7018,
      "ĠAwards": 7019,
      "Ġserves": 7020,
      "Ġkeeps": 7021,
      "Ġinfrastructure": 7022,
      "Ġcoup": 7023,
      "Ġabsor": 7024,
      "Ġcommitment": 7025,
      "Ġphilos": 7026,
      "Ġcater": 7027,
      "oul": 7028,
      "ĠHur": 7029,
      "Ġparking": 7030,
      "Ġguy": 7031,
      "Ġcharged": 7032,
      "Ġmicro": 7033,
      "bed": 7034,
      "worth": 7035,
      "Ġcher": 7036,
      "ĠTest": 7037,
      "ĠCA": 7038,
      "**": 7039,
      "ca": 7040,
      "Ġunlike": 7041,
      "Ġfinds": 7042,
      "Ġboats": 7043,
      "Ġpresentation": 7044,
      "Ġtasted": 7045,
      "Ġsnowman": 7046,
      "Ġinvestigation": 7047,
      "Ġsymptoms": 7048,
      "Ġmattress": 7049,
      "TS": 7050,
      "cont": 7051,
      "Ġcrayons": 7052,
      "apping": 7053,
      "da": 7054,
      "ingu": 7055,
      "ĠOK": 7056,
      "ĠFestival": 7057,
      "ĠEp": 7058,
      "Ġrecovery": 7059,
      "Ġwidely": 7060,
      "Ġscientific": 7061,
      "Ġathlet": 7062,
      "New": 7063,
      "PC": 7064,
      "iors": 7065,
      "Ġtap": 7066,
      "rible": 7067,
      "Ġrom": 7068,
      "ĠGar": 7069,
      "Ġspicy": 7070,
      "ffect": 7071,
      "Ġfounded": 7072,
      "pire": 7073,
      "ĠAri": 7074,
      "iform": 7075,
      "ĠOrig": 7076,
      "Ġfigures": 7077,
      "Ġfulf": 7078,
      "ĠRichard": 7079,
      "Ġpicnic": 7080,
      "VD": 7081,
      "Ġaer": 7082,
      "Ġpip": 7083,
      "ulous": 7084,
      "Ġsafely": 7085,
      "Ġaccurate": 7086,
      "Ġtrained": 7087,
      "Ġmarriage": 7088,
      "Ġconvenient": 7089,
      "Ġsnacks": 7090,
      "Ġwalks": 7091,
      "Ġbroadcast": 7092,
      "Ġvit": 7093,
      "TH": 7094,
      "ĠPenn": 7095,
      "ĠColumb": 7096,
      "inn": 7097,
      "ĠLtd": 7098,
      "Ġscholars": 7099,
      "Ġresidential": 7100,
      "anches": 7101,
      "Ġdepth": 7102,
      "Ġsoldiers": 7103,
      "Ġassessment": 7104,
      "Ġluxury": 7105,
      "sen": 7106,
      "Ġspider": 7107,
      "teen": 7108,
      "Ġundert": 7109,
      "Ġattacks": 7110,
      "Ġdram": 7111,
      "Ġefficiency": 7112,
      "Ġdrugs": 7113,
      "anes": 7114,
      "ĠEgypt": 7115,
      "Ġshed": 7116,
      "Ġpharm": 7117,
      "Ġassigned": 7118,
      "Ġvacation": 7119,
      "Ġmini": 7120,
      "Ġcapable": 7121,
      "ĠEmily": 7122,
      "Ġmotion": 7123,
      "Ġentirely": 7124,
      "Ġassum": 7125,
      "fortunately": 7126,
      "Ġsnake": 7127,
      "Ġnervous": 7128,
      "55": 7129,
      "case": 7130,
      "grad": 7131,
      "zed": 7132,
      "Ġwestern": 7133,
      "Ġauthorities": 7134,
      "Ġexcitement": 7135,
      "ĠSet": 7136,
      "abled": 7137,
      "Ġseeds": 7138,
      "ĠProv": 7139,
      "uan": 7140,
      "ĠRead": 7141,
      "Ġwriters": 7142,
      "yright": 7143,
      "Ġwing": 7144,
      "ĠOffic": 7145,
      "ographic": 7146,
      "Ġcrazy": 7147,
      "ĠFurther": 7148,
      "Ġkit": 7149,
      "Ġtravell": 7150,
      "riting": 7151,
      "Ġstands": 7152,
      "iments": 7153,
      "ĠDisc": 7154,
      "ĠNorthern": 7155,
      "Ġuncom": 7156,
      "ĠChris": 7157,
      "Ġcoins": 7158,
      "merce": 7159,
      "Ġoccurred": 7160,
      "Ġcandidate": 7161,
      "Ġinstrument": 7162,
      "upp": 7163,
      "igration": 7164,
      "Ġdeploy": 7165,
      "Ġmerch": 7166,
      "II": 7167,
      "list": 7168,
      "Ġhire": 7169,
      "cend": 7170,
      "apos": 7171,
      "Ġregistration": 7172,
      "Ġprogramme": 7173,
      "Ġcloset": 7174,
      "Ġatmosphere": 7175,
      "Ġhabit": 7176,
      "ĠCoast": 7177,
      "Ġalert": 7178,
      "Ġleague": 7179,
      "Ġpepper": 7180,
      "ĠNext": 7181,
      "Ġinspiration": 7182,
      "Ġheads": 7183,
      "Ġprimarily": 7184,
      "Ġdestroyed": 7185,
      "Ġpuzzle": 7186,
      "78": 7187,
      "bal": 7188,
      "Ð½": 7189,
      "Ġcertified": 7190,
      "kins": 7191,
      "acle": 7192,
      "ĠJones": 7193,
      "Ġfeelings": 7194,
      "Ġmagnet": 7195,
      "Ġconsumer": 7196,
      "Ġsmelled": 7197,
      "Ġnuclear": 7198,
      "tons": 7199,
      "Ġsink": 7200,
      "ĠFair": 7201,
      "ĠExt": 7202,
      "ĠJud": 7203,
      "Ġadvis": 7204,
      "Ġstructures": 7205,
      "Ġupload": 7206,
      "Ġopens": 7207,
      "ran": 7208,
      "Ġwolf": 7209,
      "Ġborder": 7210,
      "isis": 7211,
      "Ġhiding": 7212,
      "Ġworse": 7213,
      "Ġmassive": 7214,
      "Ġfo": 7215,
      "Ġgained": 7216,
      "ĠPen": 7217,
      "uddle": 7218,
      "ĠJenny": 7219,
      "SP": 7220,
      "ource": 7221,
      "Ġattach": 7222,
      "Ġconstantly": 7223,
      "intage": 7224,
      "Ġauthent": 7225,
      "Ġreputation": 7226,
      "ancer": 7227,
      "Ġapartment": 7228,
      "66": 7229,
      "ĠSn": 7230,
      "sters": 7231,
      "agram": 7232,
      "Ġharder": 7233,
      "Ġoperate": 7234,
      "Ġsticks": 7235,
      "ĠJewish": 7236,
      "Ġgifts": 7237,
      "Ġdomestic": 7238,
      "Ġdating": 7239,
      "Ġpoet": 7240,
      "Ġfleet": 7241,
      "ĠOrgan": 7242,
      "Ġsettings": 7243,
      "owntown": 7244,
      "Ġassets": 7245,
      "Ġworldwide": 7246,
      "Ġcircle": 7247,
      "Ġcollaboration": 7248,
      "urning": 7249,
      "Ġshy": 7250,
      "Ġpublish": 7251,
      "Ġlandscape": 7252,
      "Sc": 7253,
      "ĠLab": 7254,
      "ĠFoot": 7255,
      "Ġvess": 7256,
      "Ġspo": 7257,
      "ĠWeek": 7258,
      "Ġregul": 7259,
      "Ġconfirm": 7260,
      "Ġjumping": 7261,
      "ĠBon": 7262,
      "ingly": 7263,
      "unction": 7264,
      "Ġarmy": 7265,
      "Ġdispl": 7266,
      "nergy": 7267,
      "Ġfacing": 7268,
      "49": 7269,
      "Ġtiss": 7270,
      "apore": 7271,
      "Ġtrucks": 7272,
      "Ġjog": 7273,
      "Ġdefend": 7274,
      "Ġrespectively": 7275,
      "Ġexclusive": 7276,
      "ĠHor": 7277,
      "ogen": 7278,
      "Ġdesigner": 7279,
      "Ġmagn": 7280,
      "related": 7281,
      "Ġcandidates": 7282,
      "eller": 7283,
      "ĠTherefore": 7284,
      "ey": 7285,
      "va": 7286,
      "ĠLast": 7287,
      "Ġclinical": 7288,
      "gent": 7289,
      "Ġnarrow": 7290,
      "ĠCode": 7291,
      "Ġexec": 7292,
      "terday": 7293,
      "usher": 7294,
      "Ġknocked": 7295,
      "Ġdism": 7296,
      "Ġfing": 7297,
      "ĠJon": 7298,
      "active": 7299,
      "Ġfacilit": 7300,
      "Ġrisks": 7301,
      "Ġgear": 7302,
      "Ġsomewhere": 7303,
      "Ġreasonable": 7304,
      "Ġdomain": 7305,
      "Ġfreedom": 7306,
      "Ġexecut": 7307,
      "ĠVill": 7308,
      "lection": 7309,
      "gage": 7310,
      "ĠSouthern": 7311,
      "Ġlargely": 7312,
      "Ġyounger": 7313,
      "Ġultimately": 7314,
      "Ġincorpor": 7315,
      "Ġstyles": 7316,
      "ÑĢ": 7317,
      "ìĿ": 7318,
      "Ġdent": 7319,
      "Ġsheep": 7320,
      "Ġ37": 7321,
      "Acc": 7322,
      "Ġawards": 7323,
      "Ġpa": 7324,
      "ĠLater": 7325,
      "Ġfoundation": 7326,
      "ĠHotel": 7327,
      "Ġlatter": 7328,
      "inder": 7329,
      "Ġagents": 7330,
      "Ġupdates": 7331,
      "zard": 7332,
      "Ġorganic": 7333,
      "Ġversions": 7334,
      "Ġobjects": 7335,
      "ĠFollowing": 7336,
      "ĠMat": 7337,
      "ĠBi": 7338,
      "Ġrhy": 7339,
      "ĠYOU": 7340,
      "Ġwheels": 7341,
      "ĠDisney": 7342,
      "Ġinnovation": 7343,
      "ĠAp": 7344,
      "ĠWomen": 7345,
      "Ġcarbon": 7346,
      "Ġdifferences": 7347,
      "Ġtechnique": 7348,
      "Ġhoping": 7349,
      "ĠNavy": 7350,
      "Ġexternal": 7351,
      "Ġsupports": 7352,
      "ii": 7353,
      "Ġpatch": 7354,
      "och": 7355,
      "ML": 7356,
      "Ġarts": 7357,
      "Ġ1970": 7358,
      "Ġpowder": 7359,
      "OC": 7360,
      "Ġorganis": 7361,
      "Ġaffili": 7362,
      "Ġsubmit": 7363,
      "Ġsack": 7364,
      "Ġwake": 7365,
      "Ġexceed": 7366,
      "Ġdeck": 7367,
      "Ġlifestyle": 7368,
      "ican": 7369,
      "aze": 7370,
      "Ġcruc": 7371,
      "Ġfilter": 7372,
      "Ġauthors": 7373,
      "Ġlie": 7374,
      "ĠThose": 7375,
      "Ġpeak": 7376,
      "ĠChief": 7377,
      "ificate": 7378,
      "Ġinformed": 7379,
      "Ġcorrespond": 7380,
      "Ġstations": 7381,
      "ĠEqu": 7382,
      "Ġcolours": 7383,
      "Ġindeed": 7384,
      "Ġsignal": 7385,
      "Ġpayments": 7386,
      "ospit": 7387,
      "Ġforgive": 7388,
      "ĠQueen": 7389,
      "Gr": 7390,
      "Ġpitch": 7391,
      "ĠNOT": 7392,
      "Ġcausing": 7393,
      "Ġintegrated": 7394,
      "ĠMum": 7395,
      "ĠList": 7396,
      "Ġheaded": 7397,
      "Ġprize": 7398,
      "Ġdiscussed": 7399,
      "Ġprinted": 7400,
      "Ġawareness": 7401,
      "Ġconfirmed": 7402,
      "ĠWalk": 7403,
      "ĠItaly": 7404,
      "Ġfellow": 7405,
      "Ġcapture": 7406,
      "Ġtightly": 7407,
      "ĠPrem": 7408,
      "prene": 7409,
      "Ġguidance": 7410,
      "ighed": 7411,
      "oli": 7412,
      "Ġdiscl": 7413,
      "Ġsoap": 7414,
      "ĠAdv": 7415,
      "Ġarrive": 7416,
      "Ġrocket": 7417,
      "bridge": 7418,
      "Ġhopes": 7419,
      "ĠBed": 7420,
      "ocation": 7421,
      "Ġprison": 7422,
      "Ġcarpet": 7423,
      "Ġmusc": 7424,
      "Ġfalling": 7425,
      "Ġdivision": 7426,
      "Ġfestival": 7427,
      "ĠHon": 7428,
      "ĠEconom": 7429,
      "oster": 7430,
      "ĠInvest": 7431,
      "Ġ150": 7432,
      "Ġbonus": 7433,
      "Ġnewspaper": 7434,
      "eer": 7435,
      "Ġstre": 7436,
      "Ġmemories": 7437,
      "Ġimprovement": 7438,
      "38": 7439,
      "cious": 7440,
      "Ġimpossible": 7441,
      "Ġcircumstances": 7442,
      "gly": 7443,
      "Ġjudge": 7444,
      "MA": 7445,
      "ĠRoom": 7446,
      "Ġapps": 7447,
      "print": 7448,
      "Ġprivacy": 7449,
      "Ġpermission": 7450,
      "ĠDownload": 7451,
      "olph": 7452,
      "Ġplot": 7453,
      "Ġscream": 7454,
      "Ġretire": 7455,
      "Ġbrothers": 7456,
      "Ġrecognize": 7457,
      "ani": 7458,
      "ĠHead": 7459,
      "Ġdishes": 7460,
      "Ġcommonly": 7461,
      "Ġqualified": 7462,
      "inem": 7463,
      "esh": 7464,
      "Ġdates": 7465,
      "Ġbranches": 7466,
      "Ġinvent": 7467,
      "Ġperforming": 7468,
      "Ġhealthcare": 7469,
      "Ġnarr": 7470,
      "ĠStart": 7471,
      "ĠSand": 7472,
      "ĠWild": 7473,
      "Ġacting": 7474,
      "Ġsalad": 7475,
      "Ġtradition": 7476,
      "uten": 7477,
      "ĠAT": 7478,
      "Ġriding": 7479,
      "reprene": 7480,
      "Ġfasc": 7481,
      "ĠColl": 7482,
      "Ġrating": 7483,
      "ĠHeart": 7484,
      "Ġanyway": 7485,
      "uality": 7486,
      "Ġalongside": 7487,
      "Ġhonor": 7488,
      "Ġnormally": 7489,
      "ĠTwitter": 7490,
      "mar": 7491,
      "ilty": 7492,
      "Ġcreature": 7493,
      "Ġreturns": 7494,
      "Ġchoosing": 7495,
      "Ġtied": 7496,
      "asters": 7497,
      "ĠLibr": 7498,
      "orders": 7499,
      "Ġregulations": 7500,
      "Ġskill": 7501,
      "ilst": 7502,
      "ĠCond": 7503,
      "Ġchapter": 7504,
      "Ġmeetings": 7505,
      "39": 7506,
      "Ġcy": 7507,
      "ums": 7508,
      "Ġseats": 7509,
      "Phone": 7510,
      "37": 7511,
      "Ġtalent": 7512,
      "Ġneighb": 7513,
      "Ġhook": 7514,
      "Ġbasketball": 7515,
      "Ġmysterious": 7516,
      "MC": 7517,
      "ideo": 7518,
      "Ġpresents": 7519,
      "Ġpicking": 7520,
      "ĠMedia": 7521,
      "ĠSingapore": 7522,
      "Ġscreamed": 7523,
      "Ġdumpster": 7524,
      "aning": 7525,
      "Ġmere": 7526,
      "ansas": 7527,
      "Ġsynt": 7528,
      "ĠMartin": 7529,
      "SE": 7530,
      "Ġdiverse": 7531,
      "ĠKen": 7532,
      "Add": 7533,
      "ĠIP": 7534,
      "ĠMittens": 7535,
      "ĠDub": 7536,
      "Ġvs": 7537,
      "ends": 7538,
      "ĠSteve": 7539,
      "heme": 7540,
      "Ġlaid": 7541,
      "rots": 7542,
      "Ġfurry": 7543,
      "ĠGlobal": 7544,
      "Ġblew": 7545,
      "Ġpartnership": 7546,
      "Ġtherm": 7547,
      "Ġdur": 7548,
      "ĠHarr": 7549,
      "ĠON": 7550,
      "ĠEvent": 7551,
      "Ġ34": 7552,
      "Ġaccessible": 7553,
      "Ġfrustrated": 7554,
      "Ġobtained": 7555,
      "Ġsan": 7556,
      "Ġthorough": 7557,
      "ĠFarm": 7558,
      "Ġkil": 7559,
      "Ġsituations": 7560,
      "Ġlayer": 7561,
      "Ġencouraged": 7562,
      "inity": 7563,
      "Ġpor": 7564,
      "Ġyield": 7565,
      "Ġspeech": 7566,
      "Ġsplash": 7567,
      "Ġvital": 7568,
      "Ġchat": 7569,
      "Ġcontained": 7570,
      "uces": 7571,
      "Ġoffices": 7572,
      "ĠDev": 7573,
      "ĠAbout": 7574,
      "Ġexpectations": 7575,
      "Ġscenes": 7576,
      "ras": 7577,
      "lete": 7578,
      "ĠPo": 7579,
      "Ġfridge": 7580,
      "pool": 7581,
      "ĠForce": 7582,
      "Ġinvestors": 7583,
      "Ġchallenging": 7584,
      "ĠJeff": 7585,
      "OD": 7586,
      "Ġseed": 7587,
      "asts": 7588,
      "ologist": 7589,
      "Lila": 7590,
      "Ġease": 7591,
      "ira": 7592,
      "ĠBaby": 7593,
      "ĠJohnson": 7594,
      "Ġvirtual": 7595,
      "Ġjungle": 7596,
      "Ġvast": 7597,
      "Ġenorm": 7598,
      "Ġcoal": 7599,
      "Ġresearchers": 7600,
      "Ġstamp": 7601,
      "Ġroles": 7602,
      "Ġpersonally": 7603,
      "ĠLead": 7604,
      "ĠManager": 7605,
      "Ġsoul": 7606,
      "ĠLog": 7607,
      "ĠFederal": 7608,
      "Ġupcoming": 7609,
      "Ġages": 7610,
      "ounded": 7611,
      "Ġcrime": 7612,
      "ĠPlus": 7613,
      "Ġlawyer": 7614,
      "Ġfiled": 7615,
      "Ġcritics": 7616,
      "34": 7617,
      "eb": 7618,
      "etime": 7619,
      "stream": 7620,
      "Ġstable": 7621,
      "Ġrandom": 7622,
      "resents": 7623,
      "Ġelectrical": 7624,
      "Ġincreasingly": 7625,
      "First": 7626,
      "uting": 7627,
      "Ġqueen": 7628,
      "Ġpretended": 7629,
      "Ġbull": 7630,
      "Ġboring": 7631,
      "ĠMur": 7632,
      "Ġrepeated": 7633,
      "Lucy": 7634,
      "Ġfake": 7635,
      "ĠLow": 7636,
      "ennis": 7637,
      "ĠControl": 7638,
      "Ġremoval": 7639,
      "pass": 7640,
      "itled": 7641,
      "aching": 7642,
      "ĠAlice": 7643,
      "comes": 7644,
      "Ġhosting": 7645,
      "Ġembarrassed": 7646,
      "Ġdough": 7647,
      "Ġlying": 7648,
      "Ġsufficient": 7649,
      "Ġelig": 7650,
      "ĠHand": 7651,
      "ophy": 7652,
      "Ġmoist": 7653,
      "Ġordinary": 7654,
      "ĠSpring": 7655,
      "oir": 7656,
      "Ġnurse": 7657,
      "ĠSign": 7658,
      "Ġyards": 7659,
      "PR": 7660,
      "anche": 7661,
      "Ġconcrete": 7662,
      "Ġsteam": 7663,
      "Ġroads": 7664,
      "Ġcontrolled": 7665,
      "Ġentertainment": 7666,
      "Ġbare": 7667,
      "ĠJake": 7668,
      "Ġrank": 7669,
      "Ġexpressed": 7670,
      "Ġdrag": 7671,
      "Ġfactory": 7672,
      "Ġnecklace": 7673,
      "Ġelderly": 7674,
      "ĠAud": 7675,
      "Ġhappiness": 7676,
      "Ġeastern": 7677,
      "Ġgenerated": 7678,
      "Ġwooden": 7679,
      "xp": 7680,
      "zing": 7681,
      "Ġfir": 7682,
      "uls": 7683,
      "ĠPoint": 7684,
      "Ġacknow": 7685,
      "Ġcrab": 7686,
      "Ġcounty": 7687,
      "Ġpossibility": 7688,
      "ĠContact": 7689,
      "ĠIran": 7690,
      "cell": 7691,
      "sm": 7692,
      "Ġcats": 7693,
      "Ġpiano": 7694,
      "ĠEnergy": 7695,
      "Ġattorney": 7696,
      "Ġmoder": 7697,
      "Ġwinds": 7698,
      "Ġeleg": 7699,
      "Ġinjuries": 7700,
      "do": 7701,
      "ĠFox": 7702,
      "Ġoutstanding": 7703,
      "Ġmanual": 7704,
      "angers": 7705,
      "Ġincreases": 7706,
      "Ġresistance": 7707,
      "âĢĻ.": 7708,
      "Ġadvoc": 7709,
      "Ġengage": 7710,
      "UT": 7711,
      "Ġfal": 7712,
      "ĠLive": 7713,
      "Ġagric": 7714,
      "Ġgraduate": 7715,
      "itage": 7716,
      "ali": 7717,
      "ĠJenn": 7718,
      "Ġnewly": 7719,
      "Ġsatisfact": 7720,
      "Ġtears": 7721,
      "Ġmarch": 7722,
      "Ġvoc": 7723,
      "ĠSoft": 7724,
      "Ġnetworks": 7725,
      "Ġwhistle": 7726,
      "bury": 7727,
      "Ġske": 7728,
      "ĠDC": 7729,
      "ĠSummer": 7730,
      "orgeous": 7731,
      "ellect": 7732,
      "ockey": 7733,
      "Ġincident": 7734,
      "Ġconfident": 7735,
      "Ġyesterday": 7736,
      "Ġroutine": 7737,
      "Â°": 7738,
      "Ã¤": 7739,
      "ĠTele": 7740,
      "ĠSaint": 7741,
      "Ġtopics": 7742,
      "ĠAdministr": 7743,
      "Go": 7744,
      "ja": 7745,
      "Ġcm": 7746,
      "ĠHope": 7747,
      "Ġalive": 7748,
      "Ġmeals": 7749,
      "ĠDeath": 7750,
      "Ġsuggests": 7751,
      "31": 7752,
      "Ġbond": 7753,
      "Ġcreates": 7754,
      "Ġtournament": 7755,
      "Ġliquid": 7756,
      "gas": 7757,
      "jo": 7758,
      "ĠTech": 7759,
      "olves": 7760,
      "ĠRE": 7761,
      "Ġbuttons": 7762,
      "Ġlogo": 7763,
      "ordan": 7764,
      "ĠViet": 7765,
      "Ġpoem": 7766,
      "lers": 7767,
      "itan": 7768,
      "Ġlect": 7769,
      "ultural": 7770,
      "Ġteen": 7771,
      "Ġrepresents": 7772,
      "Ġentrance": 7773,
      "Ġexpansion": 7774,
      "wing": 7775,
      "ĠHuman": 7776,
      "ĠBible": 7777,
      "ppers": 7778,
      "ĠFund": 7779,
      "Ġshouldn": 7780,
      "Ġhardware": 7781,
      "Ġemployment": 7782,
      "ĠAtlantic": 7783,
      "laimed": 7784,
      "ĠThree": 7785,
      "Ġconsists": 7786,
      "ĠIslam": 7787,
      "Any": 7788,
      "hell": 7789,
      "ĠTurn": 7790,
      "ĠCEO": 7791,
      "Ġshops": 7792,
      "ibl": 7793,
      "ĠView": 7794,
      "Ġdecade": 7795,
      "Ġhighway": 7796,
      "umpy": 7797,
      "Ġtransition": 7798,
      "Ġimplementation": 7799,
      "Ġdental": 7800,
      "Ġexposure": 7801,
      "Ġengagement": 7802,
      "Ġstunning": 7803,
      "Ġalcohol": 7804,
      "ĠDie": 7805,
      "Ġuncle": 7806,
      "Ġmarks": 7807,
      "ĠBuilding": 7808,
      "uine": 7809,
      "Ġ<": 7810,
      "Ġera": 7811,
      "Ġvul": 7812,
      "Ġcounsel": 7813,
      "Cont": 7814,
      "ĠUsing": 7815,
      "ĠPriv": 7816,
      "ĠCatholic": 7817,
      "OP": 7818,
      "ĠBattle": 7819,
      "Ġbless": 7820,
      "Ġcommittee": 7821,
      "Ġdepression": 7822,
      "ubbles": 7823,
      "Ġproducing": 7824,
      "Ġenthusi": 7825,
      "Ġbes": 7826,
      "Ġcontaining": 7827,
      "azy": 7828,
      "Ġgenerate": 7829,
      "iece": 7830,
      "Ġreaching": 7831,
      "Ġpercentage": 7832,
      "Ġillustr": 7833,
      "aturally": 7834,
      "Ġpreparation": 7835,
      "Soon": 7836,
      "ĠRam": 7837,
      "Ġplayground": 7838,
      "Ġ800": 7839,
      "Ġfaced": 7840,
      "Ġconstructed": 7841,
      "Ġsin": 7842,
      "Ġgym": 7843,
      "ĠHolly": 7844,
      "Ġweird": 7845,
      "Ġloans": 7846,
      "ĠYoung": 7847,
      "ĠJohnny": 7848,
      "Ġmaintained": 7849,
      "Ġfifth": 7850,
      ");": 7851,
      "lements": 7852,
      "ĠSanta": 7853,
      "Ġugly": 7854,
      "Ġrubb": 7855,
      "una": 7856,
      "Ġranked": 7857,
      "ĠTrust": 7858,
      "Ġgranted": 7859,
      "Ġpraised": 7860,
      "Bl": 7861,
      "Ġbored": 7862,
      "oof": 7863,
      "Ġkitten": 7864,
      "Ġsuperior": 7865,
      "Ġsuffered": 7866,
      "ĠAR": 7867,
      "Ġscrew": 7868,
      "Ġexpression": 7869,
      "Ġ1998": 7870,
      "ruit": 7871,
      "you": 7872,
      "ĠBC": 7873,
      "Ġshift": 7874,
      "Ġ1960": 7875,
      "Ġchecked": 7876,
      "Ġ189": 7877,
      "Ġtested": 7878,
      "Ġanticip": 7879,
      "Ġdrinking": 7880,
      "Ġ>": 7881,
      "Ġcord": 7882,
      "ĠSU": 7883,
      "ĠWales": 7884,
      "Ġboots": 7885,
      "Ġ188": 7886,
      "Ġelected": 7887,
      "App": 7888,
      "aylor": 7889,
      "antry": 7890,
      "ĠAndrew": 7891,
      "LA": 7892,
      "See": 7893,
      "Ġicon": 7894,
      "ifted": 7895,
      "ĠWatch": 7896,
      "Ġprove": 7897,
      "Ġstruggle": 7898,
      "ĠAndroid": 7899,
      "Ġdescribe": 7900,
      "Ġarchitecture": 7901,
      "Ġax": 7902,
      "ĠCH": 7903,
      "ĠJac": 7904,
      "Ġtwenty": 7905,
      "Ġequipped": 7906,
      "Ġsuffering": 7907,
      "Ġrubber": 7908,
      "Ġcopies": 7909,
      "Ġwrapped": 7910,
      "Ġtab": 7911,
      "Ġisol": 7912,
      "ĠDog": 7913,
      "Ġcompare": 7914,
      "iana": 7915,
      "Ġrepresented": 7916,
      "Ġclothing": 7917,
      "Ġtelephone": 7918,
      "Ġcabinet": 7919,
      "64": 7920,
      "awn": 7921,
      "lines": 7922,
      "Ġcarrots": 7923,
      "ĠiPhone": 7924,
      "Ġhits": 7925,
      "Ġlaser": 7926,
      "iped": 7927,
      "ipal": 7928,
      "Ġloving": 7929,
      "ĠUt": 7930,
      "Ġstrike": 7931,
      "Ġstrengthen": 7932,
      "ĠOs": 7933,
      "Ġhandling": 7934,
      "Ġextension": 7935,
      "ĠMissou": 7936,
      "Ġlinked": 7937,
      "Ġcotton": 7938,
      "Ġbanks": 7939,
      "Ġmixture": 7940,
      "Ġrude": 7941,
      "Ġrelative": 7942,
      "Ġregions": 7943,
      "onym": 7944,
      "Ġmonitoring": 7945,
      "Ġbake": 7946,
      "ĠKent": 7947,
      "Ġengaged": 7948,
      "Ġstops": 7949,
      "Or": 7950,
      "ĠÎ": 7951,
      "Ġmal": 7952,
      "Ġduty": 7953,
      "ĠHD": 7954,
      "ĠDave": 7955,
      "ĠDVD": 7956,
      "ĠNE": 7957,
      "Ġmining": 7958,
      "Ġglue": 7959,
      "Ġintroduction": 7960,
      "Ġconsistent": 7961,
      "Ġtroops": 7962,
      "eep": 7963,
      "aints": 7964,
      "Ġcompens": 7965,
      "Ġepisodes": 7966,
      "Ġproducer": 7967,
      "ĠFull": 7968,
      "Ġvib": 7969,
      "Ġguilty": 7970,
      "Ġcrisis": 7971,
      "Ġdoctors": 7972,
      "Ġprecise": 7973,
      "Ġbacter": 7974,
      "ĠStone": 7975,
      "Ġcommunications": 7976,
      "Ġdisturb": 7977,
      "Ġphotograp": 7978,
      "Ġhistoric": 7979,
      "ĠEarly": 7980,
      "oa": 7981,
      "ĠIde": 7982,
      "ĠBud": 7983,
      "istent": 7984,
      "erning": 7985,
      "Ġmild": 7986,
      "ĠSnow": 7987,
      "amber": 7988,
      "elp": 7989,
      "irts": 7990,
      "ailable": 7991,
      "Ġstruck": 7992,
      "Ġparam": 7993,
      "Ġholes": 7994,
      "Ġmile": 7995,
      "icit": 7996,
      "Ġseal": 7997,
      "Ġvine": 7998,
      "Ġsomewhat": 7999,
      "Ġbaseball": 8000,
      "Ġcaptured": 8001,
      "Ġcontribute": 8002,
      "Ġimmediate": 8003,
      "Ġurban": 8004,
      "ĠSilver": 8005,
      "zil": 8006,
      "Ġtube": 8007,
      "alion": 8008,
      "ĠCapt": 8009,
      "Ġalt": 8010,
      "ĠKar": 8011,
      "ierce": 8012,
      "ĠDigital": 8013,
      "Ġodd": 8014,
      "ĠSom": 8015,
      "ĠJoseph": 8016,
      "ĠIC": 8017,
      "ĠBul": 8018,
      "auc": 8019,
      "Ġreducing": 8020,
      "Ð¾Ð": 8021,
      "Ġbrowser": 8022,
      "Ġsandwich": 8023,
      "Se": 8024,
      "Ġcolon": 8025,
      "Ġstudied": 8026,
      "Ġobvious": 8027,
      "ĠVan": 8028,
      "rency": 8029,
      "ĠSpain": 8030,
      "rieved": 8031,
      "Ġinterface": 8032,
      "Ġviolence": 8033,
      "Ġaccomplish": 8034,
      "Ġbid": 8035,
      "ura": 8036,
      "Ġproof": 8037,
      "ĠRoll": 8038,
      "Ġchased": 8039,
      "athan": 8040,
      "Ġoperated": 8041,
      "Ġapproval": 8042,
      "ĠKey": 8043,
      "Ġtunnel": 8044,
      "made": 8045,
      "ctor": 8046,
      "Another": 8047,
      "Ġthankful": 8048,
      "ĠMountain": 8049,
      "eling": 8050,
      "abet": 8051,
      "Ġhurricane": 8052,
      "Ġselfish": 8053,
      "mony": 8054,
      "yers": 8055,
      "Ġfool": 8056,
      "Ġpour": 8057,
      "Ġhears": 8058,
      "ĠNight": 8059,
      "Ġuniform": 8060,
      "Ġ47": 8061,
      "Ġdealing": 8062,
      "ĠAuthor": 8063,
      "ĠChildren": 8064,
      "Since": 8065,
      "ĠBang": 8066,
      "ĠGre": 8067,
      "Ġcompassion": 8068,
      "Ġtidy": 8069,
      "Ġrenov": 8070,
      "ĠPot": 8071,
      "Ġexperiment": 8072,
      "Ġadopted": 8073,
      "Ġenormous": 8074,
      "'.": 8075,
      "Pl": 8076,
      "Ġdrawn": 8077,
      "ĠSir": 8078,
      "âĢī": 8079,
      "Ġspok": 8080,
      "Ġspots": 8081,
      "aping": 8082,
      "Ġpowers": 8083,
      "Ġsavings": 8084,
      "lights": 8085,
      "inter": 8086,
      "ati": 8087,
      "Ġpod": 8088,
      "Ġlapt": 8089,
      "Ġreform": 8090,
      "essert": 8091,
      "ĠGreek": 8092,
      "Ġ55": 8093,
      "Ġfairly": 8094,
      "Ø§": 8095,
      "Ġstim": 8096,
      "Ġneut": 8097,
      "ĠFour": 8098,
      "Ġspell": 8099,
      "Ġopposite": 8100,
      "ĠCommon": 8101,
      "ĠCarl": 8102,
      "âĢ¦.": 8103,
      "Ġdisappeared": 8104,
      "Ġmanufacturer": 8105,
      "stein": 8106,
      "Ġcriminal": 8107,
      "Ñģ": 8108,
      "Ġexpenses": 8109,
      "uster": 8110,
      "idays": 8111,
      "ulpt": 8112,
      "ĠLatin": 8113,
      "ifies": 8114,
      "holders": 8115,
      "Ġstrategic": 8116,
      "Ġongoing": 8117,
      "Ġworm": 8118,
      "rosc": 8119,
      "Ġphotography": 8120,
      "Ġceiling": 8121,
      "Many": 8122,
      "Ġpm": 8123,
      "Ġ39": 8124,
      "ĠVar": 8125,
      "angle": 8126,
      "Ġears": 8127,
      "Ġperformances": 8128,
      "Ġorigin": 8129,
      "mble": 8130,
      "Ġaside": 8131,
      "ĠKat": 8132,
      "Ġcrash": 8133,
      "ĠEverywhere": 8134,
      "Ġimproving": 8135,
      "Ġsleeping": 8136,
      "Ġexception": 8137,
      "orters": 8138,
      "ooper": 8139,
      "Ġrefr": 8140,
      "Ġfitness": 8141,
      "Ġtip": 8142,
      "Ġtoil": 8143,
      "Ġreception": 8144,
      "ĠAccess": 8145,
      "Ġoverw": 8146,
      "Ġfaculty": 8147,
      "Ġzone": 8148,
      "Ġviewed": 8149,
      "ĠOrder": 8150,
      "Ġdisplayed": 8151,
      "Ġpredict": 8152,
      "Ġguidelines": 8153,
      "Ġwithdraw": 8154,
      "Next": 8155,
      "add": 8156,
      "Ġabandon": 8157,
      "Ġbloom": 8158,
      "Ġreligion": 8159,
      "alog": 8160,
      "Ġsofa": 8161,
      "ĠThus": 8162,
      "Ġrod": 8163,
      "Ġquote": 8164,
      "ĠStat": 8165,
      "Ġformal": 8166,
      "Ġextent": 8167,
      "Ġtransportation": 8168,
      "68": 8169,
      "Ġdeer": 8170,
      "Ġprince": 8171,
      "dney": 8172,
      "zes": 8173,
      "Ġacts": 8174,
      "ĠLeo": 8175,
      "Ġwaters": 8176,
      "Ġargument": 8177,
      "Ġrescue": 8178,
      "bar": 8179,
      "enger": 8180,
      "ĠGive": 8181,
      "Ġcleaned": 8182,
      "Ġadmin": 8183,
      "Ġcrucial": 8184,
      "dr": 8185,
      "Ġstraw": 8186,
      "Ġpicks": 8187,
      "Ġcalendar": 8188,
      "ĠHawai": 8189,
      "rad": 8190,
      "Ġtrash": 8191,
      "ĠCre": 8192,
      "Ġsailed": 8193,
      "Ġcarrot": 8194,
      "Ġmuscle": 8195,
      "Ġdollar": 8196,
      "Ġinner": 8197,
      "Ġrig": 8198,
      "ĠJordan": 8199,
      "ĠThough": 8200,
      "Ġindustries": 8201,
      "ĠLibrary": 8202,
      "].": 8203,
      "ĠMos": 8204,
      "Ġresulted": 8205,
      "Ġmanaging": 8206,
      "ilipp": 8207,
      "Ġplatforms": 8208,
      "Ġpermanent": 8209,
      "aud": 8210,
      "Ġrib": 8211,
      "Ġracing": 8212,
      "ushes": 8213,
      "ĠFord": 8214,
      "Ġlessons": 8215,
      "Ġgolden": 8216,
      "wo": 8217,
      "Ġsorts": 8218,
      "ĠSC": 8219,
      "ĠCreek": 8220,
      "ĠRest": 8221,
      "Ġboot": 8222,
      "Ġ65": 8223,
      "Ġstored": 8224,
      "Ġfolks": 8225,
      "agues": 8226,
      "lower": 8227,
      "Ġwrap": 8228,
      "Ġzero": 8229,
      "Ġheavily": 8230,
      "Ġfingers": 8231,
      "hire": 8232,
      "Ġbaking": 8233,
      "ĠMP": 8234,
      "Ġshield": 8235,
      "ĠNever": 8236,
      "ampion": 8237,
      "ĠAsh": 8238,
      "Ġreduction": 8239,
      "Ġreturning": 8240,
      "Ġjoke": 8241,
      "Ġattempts": 8242,
      "47": 8243,
      "AB": 8244,
      "Ġbark": 8245,
      "otic": 8246,
      "Ġpricing": 8247,
      "Ġcontrols": 8248,
      "????": 8249,
      "Ġpipe": 8250,
      "Ġdefault": 8251,
      "Ġbelieves": 8252,
      "Ġwarning": 8253,
      "Ġsustainable": 8254,
      "Ġwishes": 8255,
      "icity": 8256,
      "Ġjam": 8257,
      "Ġentreprene": 8258,
      "Ġmonitor": 8259,
      "everal": 8260,
      "iversary": 8261,
      "Ġ1996": 8262,
      "Ġtaxes": 8263,
      "En": 8264,
      "Ġlyr": 8265,
      "ĠPR": 8266,
      "Ġdesired": 8267,
      "ĠÂ°": 8268,
      "Ġdepends": 8269,
      "Ġcomponent": 8270,
      "ĠOx": 8271,
      "Ġadds": 8272,
      "ĠHard": 8273,
      "ĠCook": 8274,
      "Ġshots": 8275,
      "Ġpublication": 8276,
      "xpected": 8277,
      "Ġhealing": 8278,
      "ĠCost": 8279,
      "ubs": 8280,
      "Ġ1995": 8281,
      "Ġtheater": 8282,
      "Ġok": 8283,
      "Ġgigg": 8284,
      "igure": 8285,
      "ĠDid": 8286,
      "Ġfacts": 8287,
      "Ġsettled": 8288,
      "Ġcasual": 8289,
      "away": 8290,
      "adel": 8291,
      "ĠLew": 8292,
      "Ġdeeper": 8293,
      "Ġ1997": 8294,
      "ĠEngineering": 8295,
      "67": 8296,
      "AG": 8297,
      "rovers": 8298,
      "Ġclay": 8299,
      "izer": 8300,
      "Ġpride": 8301,
      "Ġjoining": 8302,
      "Ġmillions": 8303,
      "Che": 8304,
      "Get": 8305,
      "Ġhorn": 8306,
      "Ġterrible": 8307,
      "Ġgallery": 8308,
      "Dr": 8309,
      "Ġmph": 8310,
      "ĠBox": 8311,
      "ĠFriend": 8312,
      "ĠField": 8313,
      "Ġchairs": 8314,
      "Ġmembership": 8315,
      "itable": 8316,
      "Ġlazy": 8317,
      "Ġtrig": 8318,
      "ÅĵI": 8319,
      "Ġillness": 8320,
      "Ġsought": 8321,
      "Ġpossess": 8322,
      "oking": 8323,
      "Ġinvolves": 8324,
      "Ġrequested": 8325,
      "ĠJersey": 8326,
      "bie": 8327,
      "lies": 8328,
      "ĠHospital": 8329,
      "ĠMult": 8330,
      "unct": 8331,
      "ĠDoes": 8332,
      "Ġpreferred": 8333,
      "oors": 8334,
      "owed": 8335,
      "ĠBatt": 8336,
      "ĠPub": 8337,
      "Ġneither": 8338,
      "Ġliber": 8339,
      "ĠArm": 8340,
      "Ġkindness": 8341,
      "ĠPhys": 8342,
      "Ġinvolving": 8343,
      "ĠEnv": 8344,
      "ĠWilliams": 8345,
      "ĠChampionship": 8346,
      "Ġpolite": 8347,
      "plete": 8348,
      "Ġstatements": 8349,
      "haust": 8350,
      "Ġpromotion": 8351,
      "Ġliterature": 8352,
      "Ġstreets": 8353,
      "bes": 8354,
      "ĠSP": 8355,
      "ĠUlt": 8356,
      "Ġtransp": 8357,
      "Ġworkshop": 8358,
      "FL": 8359,
      "eria": 8360,
      "Ġcush": 8361,
      "ĠAff": 8362,
      "ĠGro": 8363,
      "Ġthemes": 8364,
      "Ġscheme": 8365,
      "Ġdynamic": 8366,
      "Ġcrop": 8367,
      "Ġber": 8368,
      "Ġseriously": 8369,
      "ountain": 8370,
      "Ġcircles": 8371,
      "ĠIII": 8372,
      "41": 8373,
      "rets": 8374,
      "Ġmand": 8375,
      "Ġhanging": 8376,
      "ĠTaylor": 8377,
      "awa": 8378,
      "ĠColorado": 8379,
      "Ġmath": 8380,
      "ĠLiber": 8381,
      "Ġfriendship": 8382,
      "Ġdrain": 8383,
      "Ġsparkly": 8384,
      "Ġgraphics": 8385,
      "utter": 8386,
      "ecess": 8387,
      "ĠWould": 8388,
      "ĠOcean": 8389,
      "Ġsurre": 8390,
      "Ġsinger": 8391,
      "Ġsecondary": 8392,
      "Ġoccurs": 8393,
      "Ġtorn": 8394,
      "ye": 8395,
      "Ġhes": 8396,
      "ĠStan": 8397,
      "Ġentitled": 8398,
      "ĠDaniel": 8399,
      "quarters": 8400,
      "Ġpie": 8401,
      "arry": 8402,
      "Stop": 8403,
      "Ġdiamond": 8404,
      "ĠOhio": 8405,
      "Ġfirms": 8406,
      "Am": 8407,
      "ih": 8408,
      "isdom": 8409,
      "Ġdessert": 8410,
      "ashes": 8411,
      "ĠMS": 8412,
      "ĠObama": 8413,
      "igade": 8414,
      "Ġhanded": 8415,
      "ĠSports": 8416,
      "Ġcombat": 8417,
      "UL": 8418,
      "VE": 8419,
      "Ġpuddle": 8420,
      "asant": 8421,
      "Ġmeets": 8422,
      "Ġdevelopers": 8423,
      "Ġ95": 8424,
      "Ġtitles": 8425,
      "Ġelectricity": 8426,
      "Ñĸ": 8427,
      "ĠTeddy": 8428,
      "ĠBall": 8429,
      "ĠFile": 8430,
      "raph": 8431,
      "Ġtrends": 8432,
      "ĠHelp": 8433,
      "Ġweapons": 8434,
      "Ġunexpected": 8435,
      "Ġrising": 8436,
      "ĠRos": 8437,
      "ĠJam": 8438,
      "Ġintellect": 8439,
      "Ġreporting": 8440,
      "Ġstrip": 8441,
      "Ġspeaker": 8442,
      "Ġreminded": 8443,
      "Ġsamples": 8444,
      "Ġvulner": 8445,
      "GB": 8446,
      "ensus": 8447,
      "ĠMaria": 8448,
      "Ġarrival": 8449,
      "Ġgenuine": 8450,
      "Ġrevolution": 8451,
      "ĠBrazil": 8452,
      "Ġterror": 8453,
      "ĠScotland": 8454,
      "mun": 8455,
      "inch": 8456,
      "ĠCO": 8457,
      "ĠMD": 8458,
      "terior": 8459,
      "Ġshock": 8460,
      "izzy": 8461,
      "ĠKnow": 8462,
      "ĠYouT": 8463,
      "Ġvisible": 8464,
      "Ġpointing": 8465,
      "Ġapolog": 8466,
      "Ġpleasure": 8467,
      "Ġtowel": 8468,
      "aire": 8469,
      "iner": 8470,
      "ito": 8471,
      "ĠCivil": 8472,
      "umbled": 8473,
      "ipt": 8474,
      "anwhile": 8475,
      "Ġreaction": 8476,
      "Ġspac": 8477,
      "Ġshoulder": 8478,
      "Ġbreaking": 8479,
      "Ġrolling": 8480,
      "profit": 8481,
      "ĠAirport": 8482,
      "Ġenterprise": 8483,
      "Ġlicensed": 8484,
      "Ġfalse": 8485,
      "ĠBell": 8486,
      "Ġindex": 8487,
      "Ġavailability": 8488,
      "Ġmessy": 8489,
      "ĠArea": 8490,
      "Ġcategories": 8491,
      "Ġcomparison": 8492,
      "Ġrecipes": 8493,
      "?âĢĿ": 8494,
      "Will": 8495,
      "ĠAS": 8496,
      "Ġintense": 8497,
      "Ġdiscipl": 8498,
      "Ġmush": 8499,
      "Ġstaying": 8500,
      "Ġcertification": 8501,
      "Ġcovering": 8502,
      "Ġmeasured": 8503,
      "ĠHaving": 8504,
      "ĠSpirit": 8505,
      "Ġcontinuing": 8506,
      "Ġlowest": 8507,
      "42": 8508,
      "Ġtech": 8509,
      "Ġlets": 8510,
      "ĠEverything": 8511,
      "Ġstake": 8512,
      "ags": 8513,
      "quir": 8514,
      "Ġstrict": 8515,
      "ĠRef": 8516,
      "Ġcommunicate": 8517,
      "Ġproposal": 8518,
      "Ġcouncil": 8519,
      "Ġceremony": 8520,
      "Ġjacket": 8521,
      "uma": 8522,
      "ishop": 8523,
      "Ġdriven": 8524,
      "Ġrecognition": 8525,
      "46": 8526,
      "UN": 8527,
      "Ġclar": 8528,
      "Ġlocked": 8529,
      "Ġwireless": 8530,
      "Ġruined": 8531,
      "Ġ00": 8532,
      "rence": 8533,
      "etary": 8534,
      "Ġstain": 8535,
      "ĠCa": 8536,
      "ĠLine": 8537,
      "ĠStore": 8538,
      "iking": 8539,
      "anned": 8540,
      "ĠSmart": 8541,
      "Ġsubmitted": 8542,
      "Ġoverwhel": 8543,
      "HS": 8544,
      "Ġbomb": 8545,
      "Ġpushing": 8546,
      "acht": 8547,
      "ĠAD": 8548,
      "ĠPDF": 8549,
      "Ġlists": 8550,
      "hemat": 8551,
      "ĠFilm": 8552,
      "ifer": 8553,
      "ĠOpt": 8554,
      "Ġintent": 8555,
      "Ġtreatments": 8556,
      "ĠSupport": 8557,
      "long": 8558,
      "ml": 8559,
      "Ġgorgeous": 8560,
      "Ġcompletion": 8561,
      "Ġbehalf": 8562,
      "Ġbarked": 8563,
      "ĠMuslim": 8564,
      "Ġultimate": 8565,
      "Ġrapidly": 8566,
      "wick": 8567,
      "Ġbeer": 8568,
      "ĠHun": 8569,
      "Ġmanufacturers": 8570,
      "According": 8571,
      "cycle": 8572,
      "tics": 8573,
      "zona": 8574,
      "Ġcage": 8575,
      "ects": 8576,
      "Ġworst": 8577,
      "ĠChair": 8578,
      "otten": 8579,
      "Ġnicely": 8580,
      "itches": 8581,
      "Ġshoe": 8582,
      "Ġsending": 8583,
      "REE": 8584,
      "ĠRout": 8585,
      "neys": 8586,
      "ĠWebs": 8587,
      "Ġbattles": 8588,
      "AA": 8589,
      "lyn": 8590,
      "Ġevol": 8591,
      "ĠAndy": 8592,
      "Ġhosted": 8593,
      "Ġmushroom": 8594,
      "Ġmi": 8595,
      "ĠSuch": 8596,
      "agle": 8597,
      "Ġshake": 8598,
      "Ġsocc": 8599,
      "Ġsoph": 8600,
      "Ġproven": 8601,
      "Ġspecialist": 8602,
      "Ġmodified": 8603,
      "Ġencoun": 8604,
      "ĠGeorgia": 8605,
      "Ġrhyth": 8606,
      "Ġbin": 8607,
      "Ġequival": 8608,
      "Ġstudying": 8609,
      "Ġtraveling": 8610,
      "Ġterritory": 8611,
      "Ġsoccer": 8612,
      "Ġhospit": 8613,
      "ĠSaf": 8614,
      "Ġalarm": 8615,
      "Ġcomposed": 8616,
      "Ġsword": 8617,
      "Ġassociation": 8618,
      "ĠSwed": 8619,
      "Ġdiseases": 8620,
      "Ġmistakes": 8621,
      "Ġacquired": 8622,
      "rich": 8623,
      "onto": 8624,
      "engers": 8625,
      "ylvan": 8626,
      "Ġburning": 8627,
      "TV": 8628,
      "ĠTry": 8629,
      "utional": 8630,
      "ĠEastern": 8631,
      "Ġwanting": 8632,
      "Ġbreaks": 8633,
      "Ġexhibition": 8634,
      "Ġreact": 8635,
      "igate": 8636,
      "âĢĻ,": 8637,
      "ĠApplic": 8638,
      "Ġprinciples": 8639,
      "Ġbump": 8640,
      "Ġstages": 8641,
      "Ġconvey": 8642,
      "ocial": 8643,
      "Ġenvelop": 8644,
      "Ġenroll": 8645,
      "Ġjustice": 8646,
      "Ġpotentially": 8647,
      "Ġwarned": 8648,
      "Ġprinting": 8649,
      "ĠAccount": 8650,
      "Ġerrors": 8651,
      "Ġintelligence": 8652,
      "ĠSecretary": 8653,
      "Qu": 8654,
      "Today": 8655,
      "rat": 8656,
      "Ġille": 8657,
      "Ġphen": 8658,
      "ĠAvenue": 8659,
      "ĠNick": 8660,
      "Ġmeadow": 8661,
      "Ġreader": 8662,
      "ĠEdward": 8663,
      "Ġlayout": 8664,
      "Ġsensitive": 8665,
      "Ġsudden": 8666,
      "Ġdelighted": 8667,
      "Ġdefeat": 8668,
      "Ġfiction": 8669,
      "Ġlean": 8670,
      "Ġenforce": 8671,
      "ĠAdam": 8672,
      "Ġapplicable": 8673,
      "Ġcrystal": 8674,
      "Ġamounts": 8675,
      "Most": 8676,
      "fish": 8677,
      "ĠPass": 8678,
      "ardens": 8679,
      "Ġenables": 8680,
      "Ġdiscovery": 8681,
      "Ġexplored": 8682,
      "folio": 8683,
      "ĠColumbia": 8684,
      "athy": 8685,
      "Ġscratch": 8686,
      "Ġtact": 8687,
      "Ġseasons": 8688,
      "Ġunw": 8689,
      "Ġsleepy": 8690,
      "Ġcelebrated": 8691,
      "Ġsurrounded": 8692,
      "Ġpillow": 8693,
      "ĠYouTube": 8694,
      "ãĥ": 8695,
      "ĠRay": 8696,
      "ĠNic": 8697,
      "Ġtemple": 8698,
      "Ġyelled": 8699,
      "Ġcooked": 8700,
      "Ġchannels": 8701,
      "69": 8702,
      "Com": 8703,
      "Sorry": 8704,
      "Ġdowntown": 8705,
      "Ġlou": 8706,
      "Their": 8707,
      "ĠStation": 8708,
      "Ġcourage": 8709,
      "ĠDecor": 8710,
      "ealous": 8711,
      "reement": 8712,
      "ĠSite": 8713,
      "ĠDun": 8714,
      "ĠNote": 8715,
      "Ġrecyc": 8716,
      "Ġpersonality": 8717,
      "Ġcapabilities": 8718,
      "ĠBeaut": 8719,
      "Ġexistence": 8720,
      "Ġtemperatures": 8721,
      "05": 8722,
      "MP": 8723,
      "bel": 8724,
      "ĠSup": 8725,
      "ĠHoly": 8726,
      "ĠLuc": 8727,
      "ĠFle": 8728,
      "Ġstrongly": 8729,
      "sis": 8730,
      "Ġbitter": 8731,
      "Ġfastest": 8732,
      "Ġdescribes": 8733,
      "ĠAdditionally": 8734,
      "Ġscientists": 8735,
      "ĠTheatre": 8736,
      "rip": 8737,
      "ctic": 8738,
      "berries": 8739,
      "Ġ49": 8740,
      "Ġgreatly": 8741,
      "Ġensuring": 8742,
      "burgh": 8743,
      "front": 8744,
      "EG": 8745,
      "Äģ": 8746,
      "eters": 8747,
      "ĠBear": 8748,
      "Ġ..": 8749,
      "Ġknock": 8750,
      "Ġarrow": 8751,
      "ĠVideo": 8752,
      "Ġsquee": 8753,
      "Ġrequirement": 8754,
      "Ġexamine": 8755,
      "Ġwins": 8756,
      "ĠCop": 8757,
      "ĠBella": 8758,
      "riers": 8759,
      "ĠKn": 8760,
      "Ġtwist": 8761,
      "Ġfinance": 8762,
      "upid": 8763,
      "ĠEnjoy": 8764,
      "Ġtrusted": 8765,
      "Last": 8766,
      "ayer": 8767,
      "robe": 8768,
      "uter": 8769,
      "ĠDNA": 8770,
      "ĠFre": 8771,
      "Ġpasta": 8772,
      "Ġgig": 8773,
      "Ġshade": 8774,
      "Ġsciss": 8775,
      "Ġexposed": 8776,
      "Ġexplains": 8777,
      "Ġsignature": 8778,
      "ĠPlace": 8779,
      "Ġcompliance": 8780,
      "Ġdefinition": 8781,
      "Ġflavor": 8782,
      "ba": 8783,
      "corn": 8784,
      "Ġtear": 8785,
      "urrent": 8786,
      "ĠMoo": 8787,
      "Ġrural": 8788,
      "Ġexhaust": 8789,
      "ĠYet": 8790,
      "Ġsculpt": 8791,
      "Ġscarf": 8792,
      "Ġhate": 8793,
      "Ġyoga": 8794,
      "ĠLi": 8795,
      "Ġ250": 8796,
      "ĠNorm": 8797,
      "Ġapproaches": 8798,
      "ĠStudents": 8799,
      "Ġlifted": 8800,
      "Ġrecommendations": 8801,
      "mo": 8802,
      "urg": 8803,
      "unicip": 8804,
      "ĠFar": 8805,
      "Ġremark": 8806,
      "Ġpersons": 8807,
      "Ġsolo": 8808,
      "Ġofficially": 8809,
      "Ġinjured": 8810,
      "Ġcycl": 8811,
      "oen": 8812,
      "Ġreverse": 8813,
      "ellite": 8814,
      "Ġloose": 8815,
      "Ġcontainer": 8816,
      "Ġwealthy": 8817,
      "%.": 8818,
      "Dad": 8819,
      "war": 8820,
      "ĠBal": 8821,
      "quality": 8822,
      "ĠRail": 8823,
      "Ġcontrovers": 8824,
      "Ġminimal": 8825,
      "Ġoppon": 8826,
      "ĠSydney": 8827,
      "Ġdelicate": 8828,
      "Ġsections": 8829,
      "Ġprospect": 8830,
      "Ġfeathers": 8831,
      "rics": 8832,
      "level": 8833,
      "Ġweekly": 8834,
      "fortable": 8835,
      "Ġlegislation": 8836,
      "ĠMachine": 8837,
      "ylvania": 8838,
      "01": 8839,
      "site": 8840,
      "ĠLady": 8841,
      "ĠPack": 8842,
      "ĠGra": 8843,
      "ĠGirl": 8844,
      "Ġscope": 8845,
      "Ġresume": 8846,
      "Ġlisting": 8847,
      "Ġ185": 8848,
      "Ġconcerning": 8849,
      "Ġdivided": 8850,
      "ĠOak": 8851,
      "ĠGarden": 8852,
      "ĠGulf": 8853,
      "Ġ600": 8854,
      "ĠReport": 8855,
      "Ġrequests": 8856,
      "Ġmountains": 8857,
      "Ġconnections": 8858,
      "Ġprayer": 8859,
      "Ġsubsequent": 8860,
      "Ġeligible": 8861,
      "rick": 8862,
      "tes": 8863,
      "Ġtack": 8864,
      "ĠInstagram": 8865,
      "ĠExpress": 8866,
      "ho": 8867,
      "Ġpounds": 8868,
      "Ġnaturally": 8869,
      "asty": 8870,
      "ĠStock": 8871,
      "Ġevolution": 8872,
      "Ġintroduce": 8873,
      "Ġashamed": 8874,
      "inar": 8875,
      "Ġharsh": 8876,
      "Ġdil": 8877,
      "ulating": 8878,
      "ĠLED": 8879,
      "ĠRight": 8880,
      "Ġchase": 8881,
      "Ġjet": 8882,
      "Ġusage": 8883,
      "ĠParliament": 8884,
      "Pre": 8885,
      "ta": 8886,
      "Ġgroc": 8887,
      "ece": 8888,
      "ĠVery": 8889,
      "Ġrealised": 8890,
      "Ġengines": 8891,
      "aska": 8892,
      "ventional": 8893,
      "EE": 8894,
      "FC": 8895,
      "lined": 8896,
      "ĠShort": 8897,
      "Em": 8898,
      "Jim": 8899,
      "ĠLy": 8900,
      "Ġuniverse": 8901,
      "Ġminim": 8902,
      "annel": 8903,
      "Although": 8904,
      "ĠConnect": 8905,
      "ygen": 8906,
      "íķ": 8907,
      "Ġliability": 8908,
      "Ġjelly": 8909,
      "Ġdisag": 8910,
      "Ġembr": 8911,
      "Ġcenters": 8912,
      "Ġmanagers": 8913,
      "Ġlands": 8914,
      "Ġcomplicated": 8915,
      "Ġpriority": 8916,
      "ĠHistor": 8917,
      "ndry": 8918,
      "Ġpace": 8919,
      "aya": 8920,
      "ĠNon": 8921,
      "Ġletting": 8922,
      "ĠPhilipp": 8923,
      "Ġdebate": 8924,
      "ĠHarry": 8925,
      "Ġsequence": 8926,
      "ĠArizona": 8927,
      "Ġcos": 8928,
      "Ġrely": 8929,
      "ĠBridge": 8930,
      "Ġcircuit": 8931,
      "Ġcharacteristics": 8932,
      "Ġregardless": 8933,
      "ĠAuto": 8934,
      "Ġscissors": 8935,
      "Ġcries": 8936,
      "anas": 8937,
      "Ġmg": 8938,
      "Ġpanels": 8939,
      "Ġmolec": 8940,
      "iler": 8941,
      "uling": 8942,
      "agers": 8943,
      "Ġ120": 8944,
      "Ġrepresentative": 8945,
      "ĠProfessor": 8946,
      "Whe": 8947,
      "ãģ": 8948,
      "Ġpenc": 8949,
      "Ġmac": 8950,
      "ĠHim": 8951,
      "ĠEst": 8952,
      "ĠJun": 8953,
      "ubble": 8954,
      "Ġrecover": 8955,
      "ĠExpl": 8956,
      "Ġlimits": 8957,
      "ĠGuide": 8958,
      "Ġsuffer": 8959,
      "ĠSystems": 8960,
      "Ġupgrade": 8961,
      "Ġbars": 8962,
      "ĠHu": 8963,
      "ulum": 8964,
      "Ġproved": 8965,
      "Ġscan": 8966,
      "Ġtwe": 8967,
      "ĠRex": 8968,
      "ĠEmpire": 8969,
      "Ġpaintings": 8970,
      "Ġdeclared": 8971,
      "Ġintelligent": 8972,
      "ĠInsurance": 8973,
      "ĠFrancisco": 8974,
      "Ġphotographs": 8975,
      "During": 8976,
      "ĠTer": 8977,
      "Ġinsert": 8978,
      "Ġ1994": 8979,
      "Ġsquad": 8980,
      "Tommy": 8981,
      "Ġfault": 8982,
      "Ġsatisfaction": 8983,
      "Res": 8984,
      "amental": 8985,
      "ĠCra": 8986,
      "Ġactor": 8987,
      "Ġvisits": 8988,
      "Ġhotels": 8989,
      "Also": 8990,
      "Ġnuts": 8991,
      "ĠGolden": 8992,
      "ĠModern": 8993,
      "Ġmortgage": 8994,
      "Rem": 8995,
      "Ġtrunk": 8996,
      "Ġnoisy": 8997,
      "Ġnods": 8998,
      "Ġdistributed": 8999,
      "df": 9000,
      "iary": 9001,
      "heim": 9002,
      "Ġnic": 9003,
      "ĠBa": 9004,
      "Ġweren": 9005,
      "Ġsupplement": 9006,
      "Ġinvite": 9007,
      "Ġpubl": 9008,
      "Ġemployed": 9009,
      "mith": 9010,
      "ĠPop": 9011,
      "ĠRon": 9012,
      "Ġjealous": 9013,
      "Ġflights": 9014,
      "ancial": 9015,
      "ĠAsian": 9016,
      "Ġavo": 9017,
      "ĠTraining": 9018,
      "Ġpreparing": 9019,
      "mit": 9020,
      "ĠSem": 9021,
      "uties": 9022,
      "ĠHal": 9023,
      "that": 9024,
      "Ġmakeup": 9025,
      "ĠAlbert": 9026,
      "Ġbuyers": 9027,
      "Ġ1992": 9028,
      "Ġreveal": 9029,
      "Ġindicate": 9030,
      "Ġexpanded": 9031,
      "Help": 9032,
      "vy": 9033,
      "ĠSky": 9034,
      "olid": 9035,
      "ĠBand": 9036,
      "Ġwhilst": 9037,
      "ĠExecutive": 9038,
      "ĠSmall": 9039,
      "ĠSenate": 9040,
      "ĠVictoria": 9041,
      "Ġgem": 9042,
      "charge": 9043,
      "Ġ1950": 9044,
      "Ġchew": 9045,
      "Ġhoriz": 9046,
      "holder": 9047,
      "Ġargued": 9048,
      "bourne": 9049,
      "Ġscoring": 9050,
      "Ġresort": 9051,
      "Ġslot": 9052,
      "Ġopposed": 9053,
      "Ġtradem": 9054,
      "Ġtalks": 9055,
      "Ġobserv": 9056,
      "Ġdrops": 9057,
      "glass": 9058,
      "ĠRetrieved": 9059,
      "ĠPenns": 9060,
      "onna": 9061,
      "Ġalg": 9062,
      "hess": 9063,
      "Ġpersonnel": 9064,
      "Ġdemands": 9065,
      "Ġbarn": 9066,
      "Ġdiagram": 9067,
      "ĠTax": 9068,
      "Ġalumin": 9069,
      "ĠRod": 9070,
      "Ġhadn": 9071,
      "Ġ42": 9072,
      "Ġoldest": 9073,
      "ĠBroad": 9074,
      "Ġsubstantial": 9075,
      "85": 9076,
      "iac": 9077,
      "Ġid": 9078,
      "ĠTerm": 9079,
      "Ġgrey": 9080,
      "Ġorganize": 9081,
      "Ġmighty": 9082,
      "ĠPolice": 9083,
      "Because": 9084,
      "Even": 9085,
      "Ġcompat": 9086,
      "ĠUnfortunately": 9087,
      "Ġentering": 9088,
      "Ġdrinks": 9089,
      "Ġaccessories": 9090,
      "Ġtoilet": 9091,
      "hal": 9092,
      "ington": 9093,
      "Ġmask": 9094,
      "ĠSix": 9095,
      "ĠCreat": 9096,
      "Ġalter": 9097,
      "illar": 9098,
      "Ġformation": 9099,
      "Ġrestore": 9100,
      "Ġforecast": 9101,
      "âĢĭ": 9102,
      "char": 9103,
      "Ġraw": 9104,
      "ĠOS": 9105,
      "Ġneat": 9106,
      "Ġvase": 9107,
      "aret": 9108,
      "Ġphones": 9109,
      "ĠMinistry": 9110,
      "Ġpolitics": 9111,
      "79": 9112,
      "Ġpale": 9113,
      "ĠLind": 9114,
      "Ġplain": 9115,
      "Ġacceler": 9116,
      "Ġgenetic": 9117,
      "ĠForest": 9118,
      "02": 9119,
      "bec": 9120,
      "elve": 9121,
      "ĠRun": 9122,
      "Ġoutcome": 9123,
      "plates": 9124,
      "Ġ44": 9125,
      "Ġloop": 9126,
      "Ġphr": 9127,
      "ĠPrime": 9128,
      "Ġaccompan": 9129,
      "Ind": 9130,
      "date": 9131,
      "wan": 9132,
      "Ġpul": 9133,
      "Ġmold": 9134,
      "ĠSearch": 9135,
      "Ġinterf": 9136,
      "ĠGuard": 9137,
      "Ġobjective": 9138,
      "Ġinvestigate": 9139,
      "Ġkingdom": 9140,
      "Ġinitiative": 9141,
      "ĠSquare": 9142,
      "EA": 9143,
      "bell": 9144,
      "gie": 9145,
      "heart": 9146,
      "Ġbubbles": 9147,
      "Ġstro": 9148,
      "umer": 9149,
      "Ġoutcomes": 9150,
      "ĠSpe": 9151,
      "phia": 9152,
      "Ġinteraction": 9153,
      "Ġbanana": 9154,
      "Ġvel": 9155,
      "Ġcul": 9156,
      "Ġmood": 9157,
      "keeper": 9158,
      "Ġvintage": 9159,
      "Ġchances": 9160,
      "anged": 9161,
      "Ġtrips": 9162,
      "Ġcorrectly": 9163,
      "Ġconcepts": 9164,
      "Ġtransferred": 9165,
      "looking": 9166,
      "Ġcharming": 9167,
      "Ġenemy": 9168,
      "Ġtissue": 9169,
      "igen": 9170,
      "Ġbeds": 9171,
      "ĠBrad": 9172,
      "Ġcompete": 9173,
      "Ġframework": 9174,
      "ĠCroat": 9175,
      "Ġretirement": 9176,
      "adelphia": 9177,
      "ĠEver": 9178,
      "Ġ64": 9179,
      "Ġcreatures": 9180,
      "Ġparticipation": 9181,
      "inals": 9182,
      "Ġstupid": 9183,
      "Ġcourts": 9184,
      "Ġincredibly": 9185,
      "More": 9186,
      "Ġghost": 9187,
      "ĠCB": 9188,
      "ership": 9189,
      "apy": 9190,
      "Ġbooking": 9191,
      "Ġthoughtful": 9192,
      "Ġbadly": 9193,
      "Ġdelivering": 9194,
      "Ġshelter": 9195,
      "Ġliterally": 9196,
      "Ġangel": 9197,
      "orous": 9198,
      "ĠCirc": 9199,
      "ĠPak": 9200,
      "Ġtrains": 9201,
      "aka": 9202,
      "Ġindicated": 9203,
      "Ġdrama": 9204,
      "Ġwrites": 9205,
      "Ġrarely": 9206,
      "Ġrepeat": 9207,
      "Ġstruggling": 9208,
      "ĠWebsite": 9209,
      "Have": 9210,
      "Ġori": 9211,
      "Ġlies": 9212,
      "ĠTenn": 9213,
      "ĠHou": 9214,
      "aste": 9215,
      "asting": 9216,
      "Ġclown": 9217,
      "Ġcricket": 9218,
      "Ġsubscrib": 9219,
      "AY": 9220,
      "Mum": 9221,
      "Ġtone": 9222,
      "Ġcodes": 9223,
      "Ġfierce": 9224,
      "ĠMain": 9225,
      "ĠFed": 9226,
      "ĠEss": 9227,
      "ints": 9228,
      "Ġlanding": 9229,
      "ospel": 9230,
      "criptions": 9231,
      "Ġsubjects": 9232,
      "Ġattempted": 9233,
      "Ġyarn": 9234,
      "iva": 9235,
      "Ġrecre": 9236,
      "shire": 9237,
      "ĠCountry": 9238,
      "Ġburied": 9239,
      "Ġexceptional": 9240,
      "ĠRadio": 9241,
      "Im": 9242,
      "des": 9243,
      "rition": 9244,
      "acc": 9245,
      "Ġraces": 9246,
      "anted": 9247,
      "Ġblind": 9248,
      "Ġfluffy": 9249,
      "Ġdesignated": 9250,
      "Ġhyper": 9251,
      "ĠToronto": 9252,
      "Ġsatisfied": 9253,
      "was": 9254,
      "Ġstairs": 9255,
      "ellow": 9256,
      "Ġcomprom": 9257,
      "Ġoverse": 9258,
      "Ġfarmers": 9259,
      "ĠPennsylvania": 9260,
      "abies": 9261,
      "Ġfinishing": 9262,
      "Ġfolder": 9263,
      "Ġevaluation": 9264,
      "Ġequivalent": 9265,
      "Ġmob": 9266,
      "Ġgap": 9267,
      "Ġfright": 9268,
      "ĠShop": 9269,
      "Ġfits": 9270,
      "ĠMah": 9271,
      "ĠRub": 9272,
      "Ġintention": 9273,
      "Ġelectron": 9274,
      "cover": 9275,
      "Ġvolunteers": 9276,
      "Ġinters": 9277,
      "Ġlip": 9278,
      "ĠKitty": 9279,
      "Ġbrace": 9280,
      "Ġfallen": 9281,
      "ĠWorks": 9282,
      "Ġconsideration": 9283,
[...]
